{
  "version": "1.0",
  "truncation": {
    "direction": "Right",
    "max_length": 256,
    "strategy": "LongestFirst",
    "stride": 0
  },
  "padding": {
    "strategy": {
      "Fixed": 256
    },
    "direction": "Right",
    "pad_to_multiple_of": null,
    "pad_id": 0,
    "pad_type_id": 0,
    "pad_token": "[PAD]"
  },
  "added_tokens": [
    {
      "id": 0,
      "content": "[PAD]",
      "single_word": false,
      "lstrip": false,
      "rstrip": false,
      "normalized": false,
      "special": true
    },
    {
      "id": 1,
      "content": "[UNK]",
      "single_word": false,
      "lstrip": false,
      "rstrip": false,
      "normalized": false,
      "special": true
    },
    {
      "id": 2,
      "content": "[CLS]",
      "single_word": false,
      "lstrip": false,
      "rstrip": false,
      "normalized": false,
      "special": true
    },
    {
      "id": 3,
      "content": "[SEP]",
      "single_word": false,
      "lstrip": false,
      "rstrip": false,
      "normalized": false,
      "special": true
    },
    {
      "id": 4,
      "content": "[MASK]",
      "single_word": false,
      "lstrip": false,
      "rstrip": false,
      "normalized": false,
      "special": true
    }
  ],
  "normalizer": {
    "type": "Sequence",
    "normalizers": [
      {
        "type": "Lowercase"
      }
    ]
  },
  "pre_tokenizer": {
    "type": "Split",
    "pattern": {
      "String": "(?i:\\s+|[?&=/.;:(){}\\[\\]\\\"']|%[0-9a-f]{2}|\\w+|.)"
    },
    "behavior": "Isolated",
    "invert": false
  },
  "post_processor": {
    "type": "TemplateProcessing",
    "single": [
      {
        "SpecialToken": {
          "id": "[CLS]",
          "type_id": 0
        }
      },
      {
        "Sequence": {
          "id": "A",
          "type_id": 0
        }
      },
      {
        "SpecialToken": {
          "id": "[SEP]",
          "type_id": 0
        }
      }
    ],
    "pair": [
      {
        "SpecialToken": {
          "id": "[CLS]",
          "type_id": 0
        }
      },
      {
        "Sequence": {
          "id": "A",
          "type_id": 0
        }
      },
      {
        "SpecialToken": {
          "id": "[SEP]",
          "type_id": 0
        }
      },
      {
        "Sequence": {
          "id": "B",
          "type_id": 1
        }
      },
      {
        "SpecialToken": {
          "id": "[SEP]",
          "type_id": 1
        }
      }
    ],
    "special_tokens": {
      "[CLS]": {
        "id": "[CLS]",
        "ids": [
          2
        ],
        "tokens": [
          "[CLS]"
        ]
      },
      "[SEP]": {
        "id": "[SEP]",
        "ids": [
          3
        ],
        "tokens": [
          "[SEP]"
        ]
      }
    }
  },
  "decoder": {
    "type": "BPEDecoder",
    "suffix": "</w>"
  },
  "model": {
    "type": "BPE",
    "dropout": null,
    "unk_token": "[UNK]",
    "continuing_subword_prefix": null,
    "end_of_word_suffix": null,
    "fuse_unk": false,
    "byte_fallback": false,
    "ignore_merges": false,
    "vocab": {
      "[PAD]": 0,
      "[UNK]": 1,
      "[CLS]": 2,
      "[SEP]": 3,
      "[MASK]": 4,
      "\u0000": 5,
      "\t": 6,
      "\n": 7,
      " ": 8,
      "!": 9,
      "\"": 10,
      "#": 11,
      "$": 12,
      "%": 13,
      "&": 14,
      "'": 15,
      "(": 16,
      ")": 17,
      "*": 18,
      "+": 19,
      ",": 20,
      "-": 21,
      ".": 22,
      "/": 23,
      "0": 24,
      "1": 25,
      "2": 26,
      "3": 27,
      "4": 28,
      "5": 29,
      "6": 30,
      "7": 31,
      "8": 32,
      "9": 33,
      ":": 34,
      ";": 35,
      "<": 36,
      "=": 37,
      ">": 38,
      "?": 39,
      "@": 40,
      "[": 41,
      "\\": 42,
      "]": 43,
      "^": 44,
      "_": 45,
      "`": 46,
      "a": 47,
      "b": 48,
      "c": 49,
      "d": 50,
      "e": 51,
      "f": 52,
      "g": 53,
      "h": 54,
      "i": 55,
      "j": 56,
      "k": 57,
      "l": 58,
      "m": 59,
      "n": 60,
      "o": 61,
      "p": 62,
      "q": 63,
      "r": 64,
      "s": 65,
      "t": 66,
      "u": 67,
      "v": 68,
      "w": 69,
      "x": 70,
      "y": 71,
      "z": 72,
      "{": 73,
      "|": 74,
      "}": 75,
      "~": 76,
      "¢": 77,
      "£": 78,
      "§": 79,
      "©": 80,
      "¬": 81,
      "®": 82,
      "ã": 83,
      "—": 84,
      "‚": 85,
      "„": 86,
      "‡": 87,
      "€": 88,
      "令": 89,
      "命": 90,
      "行": 91,
      "": 92,
      "": 93,
      "": 94,
      "": 95,
      "": 96,
      "": 97,
      "": 98,
      "🚭": 99,
      "cr": 100,
      " [": 101,
      "] ": 102,
      "lf": 103,
      "lf] ": 104,
      " [cr": 105,
      " [crlf] ": 106,
      ": ": 107,
      "on": 108,
      "00": 109,
      "ge": 110,
      "%2": 111,
      "t: ": 112,
      "&#": 113,
      "os": 114,
      "pl": 115,
      "ap": 116,
      "ac": 117,
      "u00": 118,
      "0x": 119,
      "ion": 120,
      "\\u00": 121,
      "ep": 122,
      "ht": 123,
      "%25": 124,
      "tion": 125,
      ".1": 126,
      ";&#": 127,
      "age": 128,
      "/1": 129,
      "acc": 130,
      "accep": 131,
      " [crlf] accep": 132,
      "appl": 133,
      ".0": 134,
      "ca": 135,
      "te": 136,
      "in": 137,
      "se": 138,
      "ml": 139,
      ", ": 140,
      "la": 141,
      "11": 142,
      "/5": 143,
      "; ": 144,
      "hos": 145,
      "t ": 146,
      ") ": 147,
      "%252": 148,
      "q=": 149,
      "ar": 150,
      "t-": 151,
      " (": 152,
      "om": 153,
      "cation": 154,
      "li": 155,
      "ication": 156,
      "10": 157,
      "il": 158,
      "0x6": 159,
      "application": 160,
      "application/": 161,
      "ke": 162,
      "con": 163,
      "\\u006": 164,
      "tp": 165,
      "http": 166,
      " [crlf] con": 167,
      "/1.1": 168,
      "http/1.1": 169,
      "host: ": 170,
      " [crlf] host: ": 171,
      "it": 172,
      " [crlf] accept: ": 173,
      "q=0": 174,
      "html": 175,
      "ec": 176,
      "/*": 177,
      "http/1.1 [crlf] host: ": 178,
      "t /": 179,
      "am": 180,
      "ch": 181,
      "ser": 182,
      "q=0.": 183,
      ";q=0.": 184,
      " http/1.1 [crlf] host: ": 185,
      "user": 186,
      "7.": 187,
      "mo": 188,
      "ex": 189,
      "36": 190,
      "api": 191,
      "*/*": 192,
      "ko": 193,
      "e.": 194,
      "tion: ": 195,
      "we": 196,
      "user-": 197,
      "agen": 198,
      "ng": 199,
      "user-agen": 200,
      "ampl": 201,
      "user-agent: ": 202,
      " [crlf] user-agent: ": 203,
      "ample.": 204,
      "example.": 205,
      "\\u007": 206,
      "com": 207,
      "web": 208,
      ";&#11": 209,
      " [crlf] accept-": 210,
      "lang": 211,
      " [crlf] \n": 212,
      "uage": 213,
      "language": 214,
      "0x7": 215,
      "language: ": 216,
      " [crlf] accept-language: ": 217,
      "nec": 218,
      " [crlf] connec": 219,
      " [crlf] connection: ": 220,
      "/53": 221,
      "7.36": 222,
      "/537.36": 223,
      "ve": 224,
      "get /": 225,
      "illa": 226,
      "moz": 227,
      "mozilla": 228,
      "/5.0": 229,
      "mozilla/5.0": 230,
      "mozilla/5.0 (": 231,
      "cko": 232,
      "gecko": 233,
      " [crlf] user-agent: mozilla/5.0 (": 234,
      "example.com": 235,
      "re": 236,
      "/v": 237,
      "son": 238,
      "1/": 239,
      "kit": 240,
      "json": 241,
      "like": 242,
      "webkit": 243,
      "application/json": 244,
      "20": 245,
      "like ": 246,
      "or": 247,
      "api/v": 248,
      " s": 249,
      "html, ": 250,
      "api/v1/": 251,
      "xml": 252,
      "af": 253,
      "example.com [crlf] user-agent: mozilla/5.0 (": 254,
      "mac": 255,
      "t/": 256,
      "ari": 257,
      "64": 258,
      "like gecko": 259,
      "apple": 260,
      "applewebkit": 261,
      ") applewebkit": 262,
      "khtml, ": 263,
      " (khtml, ": 264,
      " (khtml, like gecko": 265,
      " (khtml, like gecko) ": 266,
      " saf": 267,
      " safari": 268,
      "de": 269,
      "60": 270,
      "tex": 271,
      ";&#10": 272,
      "en": 273,
      "text/": 274,
      ".example.com [crlf] user-agent: mozilla/5.0 (": 275,
      "rom": 276,
      "\": ": 277,
      "lo": 278,
      " [crlf] accept: application/json": 279,
      "--": 280,
      "pe": 281,
      "ty": 282,
      "es": 283,
      "e/1": 284,
      "-a": 285,
      "cl": 286,
      "x ": 287,
      "type": 288,
      "\": \"": 289,
      "ose": 290,
      "close": 291,
      " [crlf] connection: close": 292,
      "os ": 293,
      " os ": 294,
      ".0.": 295,
      "live": 296,
      "nd": 297,
      "keep": 298,
      "-alive": 299,
      "keep-alive": 300,
      " [crlf] connection: keep-alive": 301,
      "5c": 302,
      "ten": 303,
      "chrom": 304,
      ") applewebkit/537.36": 305,
      " safari/537.36": 306,
      ") applewebkit/537.36 (khtml, like gecko) ": 307,
      ") applewebkit/537.36 (khtml, like gecko) chrom": 308,
      "ip": 309,
      "%253": 310,
      "t=": 311,
      ",application/": 312,
      ") applewebkit/537.36 (khtml, like gecko) chrome/1": 313,
      "ta": 314,
      "/60": 315,
      "5.1": 316,
      "99": 317,
      "tent-": 318,
      ";q=0.8": 319,
      ";q=0.9": 320,
      "pos": 321,
      "l ": 322,
      "arch": 323,
      " [crlf] content-": 324,
      "%3": 325,
      " [crlf]  [crlf] ": 326,
      "ro": 327,
      ", */*": 328,
      "type: ": 329,
      "as": 330,
      "get /api/v1/": 331,
      " [crlf] content-type: ": 332,
      "mac os ": 333,
      " [crlf] accept: */*": 334,
      "th": 335,
      "25": 336,
      "%2525": 337,
      "search": 338,
      "cal": 339,
      "100": 340,
      "0x4": 341,
      "\\u004": 342,
      "post /": 343,
      ".15": 344,
      "/605.1": 345,
      "/605.1.15": 346,
      " [crlf] accept: text/": 347,
      "host": 348,
      "search?": 349,
      "..": 350,
      "local": 351,
      "localhost": 352,
      "win": 353,
      "get /search?": 354,
      "inte": 355,
      "\", ": 356,
      " [crlf] accept: */* [crlf] \n": 357,
      "localhost [crlf] accept: */* [crlf] \n": 358,
      "int": 359,
      "get /search?q=": 360,
      "rs": 361,
      "lin": 362,
      "h; ": 363,
      "intos": 364,
      "intel ": 365,
      "macintos": 366,
      "macintosh; ": 367,
      "mac os x ": 368,
      "intel mac os x ": 369,
      "macintosh; intel mac os x ": 370,
      "86": 371,
      " http/1.1 [crlf] host: localhost [crlf] accept: */* [crlf] \n": 372,
      "do": 373,
      "ile": 374,
      "pla": 375,
      "14": 376,
      "+xml": 377,
      "xhtml": 378,
      "xhtml+xml": 379,
      "im": 380,
      "12": 381,
      "\\\\u007": 382,
      "\", \"": 383,
      "ja": 384,
      "linu": 385,
      "xml;q=0.9": 386,
      ";q=0.8 [crlf] accept-language: ": 387,
      "\\\\u006": 388,
      "s ": 389,
      "ou": 390,
      "%20": 391,
      " [crlf] connection: close [crlf] \n": 392,
      "post /api/v1/": 393,
      "101": 394,
      " [crlf] connection: keep-alive [crlf] \n": 395,
      "{\"": 396,
      "500": 397,
      "&#11": 398,
      "0x65": 399,
      "fo": 400,
      ", text/": 401,
      " [crlf] accept: application/json, text/": 402,
      "s/": 403,
      "ing": 404,
      "%252f": 405,
      "ww": 406,
      "%2f": 407,
      "ad": 408,
      "54": 409,
      "vers": 410,
      "*/": 411,
      "97": 412,
      "64; ": 413,
      "version": 414,
      "le": 415,
      "%2520": 416,
      "image": 417,
      "5cu00": 418,
      "24": 419,
      "/**/": 420,
      "}\n": 421,
      "for": 422,
      "fi": 423,
      "crip": 424,
      "//": 425,
      " [crlf] content-type: application/json": 426,
      ";&#116": 427,
      "ru": 428,
      " [crlf]  [crlf] {\"": 429,
      ";&#101": 430,
      "73": 431,
      "image/": 432,
      "fr": 433,
      ".example.com [crlf] user-agent: mozilla/5.0 (macintosh; intel mac os x ": 434,
      ",*/*": 435,
      ",application/xhtml+xml": 436,
      ",image/": 437,
      " [crlf] content-type: application/json [crlf]  [crlf] {\"": 438,
      "lim": 439,
      ") applewebkit/605.1.15": 440,
      ") applewebkit/605.1.15 (khtml, like gecko) ": 441,
      " [crlf] accept: text/html": 442,
      ",application/xml;q=0.9": 443,
      ",application/xhtml+xml,application/xml;q=0.9": 444,
      " [crlf] accept: text/html,application/xhtml+xml,application/xml;q=0.9": 445,
      "s?": 446,
      ",*/*;q=0.8 [crlf] accept-language: ": 447,
      "version/1": 448,
      ") applewebkit/605.1.15 (khtml, like gecko) version/1": 449,
      "limit": 450,
      "age=": 451,
      "120": 452,
      "61": 453,
      "dow": 454,
      "-0": 455,
      " http/1.1 [crlf] host: api": 456,
      "id": 457,
      "65": 458,
      "0x74": 459,
      "page=": 460,
      "to": 461,
      "da": 462,
      "\\u0065": 463,
      "limit=": 464,
      "tem": 465,
      ";&#111": 466,
      "%0": 467,
      " mo": 468,
      "and": 469,
      "plain": 470,
      "ur": 471,
      "69": 472,
      ";&#8": 473,
      "sta": 474,
      "window": 475,
      "form": 476,
      "=\"": 477,
      "64) applewebkit/537.36 (khtml, like gecko) chrome/1": 478,
      "nt ": 479,
      " mob": 480,
      "cript": 481,
      "00x": 482,
      "plain, */*": 483,
      "plain, */* [crlf] accept-language: ": 484,
      "0x6f": 485,
      "if": 486,
      "rv": 487,
      "74": 488,
      " fi": 489,
      "/20": 490,
      "refo": 491,
      "refox": 492,
      "rv:": 493,
      "/20100": 494,
      ".0) ": 495,
      " firefox": 496,
      "gecko/20100": 497,
      "gecko/20100101": 498,
      "gecko/20100101 firefox": 499,
      ".0) gecko/20100101 firefox": 500,
      "al": 501,
      ".0) gecko/20100101 firefox/1": 502,
      "file": 503,
      "windows ": 504,
      "\"}\n": 505,
      "windows nt ": 506,
      "\\\\": 507,
      "30": 508,
      "; linu": 509,
      "di": 510,
      "x11": 511,
      "; linux ": 512,
      "13": 513,
      "22": 514,
      "ut": 515,
      "char": 516,
      "70": 517,
      "-8": 518,
      "pa": 519,
      "us": 520,
      "----": 521,
      "pro": 522,
      "_7": 523,
      "&#120": 524,
      "en-": 525,
      "53": 526,
      "nl": 527,
      "au": 528,
      "\\u0074": 529,
      "=20": 530,
      "15": 531,
      "\\u006f": 532,
      "jav": 533,
      "utf": 534,
      ";&#97": 535,
      "utf-8": 536,
      "0x73": 537,
      "an": 538,
      "&#10": 539,
      ";q=0.5": 540,
      "ame": 541,
      "://": 542,
      "\\\"": 543,
      "webp": 544,
      "%2522": 545,
      "0x63": 546,
      ",image/webp": 547,
      ",image/webp,*/*;q=0.8 [crlf] accept-language: ": 548,
      "st": 549,
      "ascript": 550,
      "javascript": 551,
      "et": 552,
      "io": 553,
      "ary": 554,
      " safari/605.1.15": 555,
      "he": 556,
      "bou": 557,
      "78": 558,
      "url": 559,
      "dev": 560,
      "co": 561,
      "data": 562,
      "0x61": 563,
      "64; x": 564,
      "; win": 565,
      "; win64; x": 566,
      "zh": 567,
      ";q=0.7": 568,
      "&limit=": 569,
      "&page=": 570,
      "%253b": 571,
      "bac": 572,
      "77": 573,
      "charse": 574,
      "%255cu00": 575,
      "%22": 576,
      "ent": 577,
      ".01": 578,
      "bound": 579,
      "boundary": 580,
      "18": 581,
      " safari/537.36 [crlf] accept: application/json": 582,
      " [crlf] accept: application/json, text/plain, */* [crlf] accept-language: ": 583,
      "nt": 584,
      "x11; linux ": 585,
      "one": 586,
      "charset=": 587,
      "charset=utf-8": 588,
      ";charset=utf-8": 589,
      ";charset=utf-8 [crlf] accept-language: ": 590,
      ", */*; ": 591,
      "q=0.01": 592,
      "javascript, */*; ": 593,
      "q=0.01 [crlf] accept-language: ": 594,
      "javascript, */*; q=0.01 [crlf] accept-language: ": 595,
      " [crlf] accept: application/json, text/javascript, */*; q=0.01 [crlf] accept-language: ": 596,
      "&#120;": 597,
      "0x69": 598,
      "auth": 599,
      "www": 600,
      "\\0x7": 601,
      "from": 602,
      "pu": 603,
      "><": 604,
      ";&#115": 605,
      "_6": 606,
      ".0.5": 607,
      "sw": 608,
      "68": 609,
      ".example.com [crlf] user-agent: mozilla/5.0 (windows nt ": 610,
      ".0.6": 611,
      "pas": 612,
      "sel": 613,
      "-01": 614,
      ".example.": 615,
      "ic": 616,
      ".example.io": 617,
      "fil": 618,
      "ging": 619,
      "\\u0061": 620,
      "50": 621,
      "passw": 622,
      "id ": 623,
      "%2526": 624,
      "selec": 625,
      "du": 626,
      "%7": 627,
      "ul": 628,
      ";&#105": 629,
      "app": 630,
      " [crlf] content-type: application/": 631,
      "7;": 632,
      "staging": 633,
      "ie": 634,
      "xe": 635,
      "backe": 636,
      "backend": 637,
      "0x72": 638,
      "linux": 639,
      ";&#108": 640,
      "andro": 641,
      "0x6c": 642,
      "android ": 643,
      "linux; ": 644,
      "linux; android ": 645,
      " mobile": 646,
      "rec": 647,
      "28": 648,
      "s http/1.1 [crlf] host: ": 649,
      "-c": 650,
      "ma": 651,
      "0x6e": 652,
      "%3b": 653,
      " [crlf] connection: close [crlf] content-type: application/json [crlf]  [crlf] {\"": 654,
      ",en": 655,
      " [crlf] connection: keep-alive [crlf] content-type: application/json [crlf]  [crlf] {\"": 656,
      "\\u0073": 657,
      "64; rv:": 658,
      "r,": 659,
      "ok": 660,
      "ct": 661,
      ";&#110": 662,
      "ub": 663,
      "hone": 664,
      ";&#99": 665,
      "59": 666,
      "%5cu00": 667,
      "iphone": 668,
      " http/1.1 [crlf] host: api.example.io": 669,
      ";&#114": 670,
      "0x64": 671,
      ") applewebkit/605.1.15 (khtml, like gecko) version/17.": 672,
      "6.": 673,
      "%2523": 674,
      "%2527": 675,
      " safari/537.36 [crlf] accept: text/html,application/xhtml+xml,application/xml;q=0.9": 676,
      "produ": 677,
      "\\u0078": 678,
      "88": 679,
      "\\0x7500": 680,
      "ys": 681,
      "\\u0063": 682,
      "name": 683,
      "direc": 684,
      "_4": 685,
      "%257": 686,
      "at": 687,
      "product": 688,
      "ss": 689,
      "\\\\u007500": 690,
      "10.0": 691,
      "webkitform": 692,
      "webkitformboundary": 693,
      "%27": 694,
      "80": 695,
      "72": 696,
      "min": 697,
      "%2526%2523": 698,
      "\\u0069": 699,
      "path": 700,
      ".example.com": 701,
      "81": 702,
      "%26": 703,
      "%255c": 704,
      ".example.com [crlf] user-agent: mozilla/5.0 (x11; linux ": 705,
      "redirec": 706,
      "82": 707,
      "auth/": 708,
      " http/1.1 [crlf] host: api.example.io [crlf] user-agent: mozilla/5.0 (": 709,
      "4.1": 710,
      "ess": 711,
      "23": 712,
      "url=": 713,
      "; c": 714,
      "%5c": 715,
      "\\&#11": 716,
      "%6": 717,
      "redirect=": 718,
      "select ": 719,
      "er": 720,
      "templa": 721,
      "template": 722,
      "e ": 723,
      "7;00": 724,
      "qu": 725,
      "\\u006c": 726,
      " like ": 727,
      "3.": 728,
      "44": 729,
      "sor": 730,
      "5e": 731,
      "10_": 732,
      "admin": 733,
      "15_7": 734,
      "10_15_7": 735,
      "x86": 736,
      "sort=": 737,
      "x86_": 738,
      " http/1.1 [crlf] host: dev": 739,
      "\\u0072": 740,
      " http/1.1 [crlf] host: www": 741,
      "jp": 742,
      ";&#100": 743,
      "host=": 744,
      " http/1.1 [crlf] host: staging": 745,
      ".example.com [crlf] user-agent: mozilla/5.0 (linux; android ": 746,
      " http/1.1 [crlf] host: backend": 747,
      "%23": 748,
      "\\u0064": 749,
      "1.0": 750,
      "; win64; x64) applewebkit/537.36 (khtml, like gecko) chrome/1": 751,
      "0x6d": 752,
      "-de": 753,
      " http/1.1 [crlf] host: app": 754,
      "0x66": 755,
      "en-us": 756,
      "ot": 757,
      "post /api/v1/auth/": 758,
      "zh-c": 759,
      "zh-cn": 760,
      "${": 761,
      "etc": 762,
      "av": 763,
      "\",": 764,
      " [crlf] content-type: application/xml": 765,
      "-fr": 766,
      ";&#109": 767,
      "ja-": 768,
      "ja-jp": 769,
      "</": 770,
      "148": 771,
      "log": 772,
      "ms": 773,
      "67": 774,
      "-ru": 775,
      "gb": 776,
      "ru-ru": 777,
      "%253e": 778,
      "it-": 779,
      "pt-": 780,
      "pt-b": 781,
      "it-it": 782,
      "; rv:": 783,
      "-k": 784,
      "13_6": 785,
      ";&#112": 786,
      "fr-fr": 787,
      "mac os x": 788,
      " like mac os x": 789,
      "; cpu": 790,
      "ile/1": 791,
      " [crlf] content-type: application/xml [crlf]  [crlf] ": 792,
      "orde": 793,
      "0000": 794,
      "-es": 795,
      "form-": 796,
      "5e148": 797,
      "ile/15e148": 798,
      "ko-k": 799,
      "es-es": 800,
      "-nl": 801,
      "nl-nl": 802,
      "16": 803,
      "from=20": 804,
      " safari/60": 805,
      " safari/604.1": 806,
      " http/1.1 [crlf] host: example.com [crlf] user-agent: mozilla/5.0 (": 807,
      "de-de": 808,
      "14_4": 809,
      "12_7": 810,
      "%26%23": 811,
      " mobile/15e148": 812,
      "en-gb": 813,
      " mobile/15e148 safari/604.1": 814,
      "to=20": 815,
      ", application/": 816,
      "application/xhtml+xml": 817,
      "html, application/xhtml+xml": 818,
      " [crlf] accept: text/html, application/xhtml+xml": 819,
      ", */*;q=0.8 [crlf] accept-language: ": 820,
      "xml;q=0.9, */*;q=0.8 [crlf] accept-language: ": 821,
      ", application/xml;q=0.9, */*;q=0.8 [crlf] accept-language: ": 822,
      " [crlf] accept: text/html, application/xhtml+xml, application/xml;q=0.9, */*;q=0.8 [crlf] accept-language: ": 823,
      "&#101": 824,
      "%3e": 825,
      "<!": 826,
      "path=": 827,
      "))": 828,
      "msg": 829,
      " w": 830,
      "avif": 831,
      "31": 832,
      ",image/avif": 833,
      ",image/avif,image/webp,*/*;q=0.8 [crlf] accept-language: ": 834,
      "sys": 835,
      "../": 836,
      "file=": 837,
      "ort": 838,
      ";&#116;": 839,
      "doc": 840,
      "ter": 841,
      "0x78": 842,
      "\\u006e": 843,
      "ment": 844,
      "get /search?q=1": 845,
      "%00": 846,
      "mess": 847,
      "\\u0070": 848,
      "%253b%2526%2523": 849,
      "0x700x": 850,
      ";&#84": 851,
      ".example.com [crlf] user-agent: ": 852,
      "63": 853,
      "\\&#117;00": 854,
      " [crlf] accept: application/json [crlf] accept-language: ": 855,
      " /": 856,
      "7.0": 857,
      "2/": 858,
      ";&#101;": 859,
      "res": 860,
      " [crlf] accept: application/json;charset=utf-8 [crlf] accept-language: ": 861,
      "un": 862,
      "users/": 863,
      "form-data": 864,
      "form-data; ": 865,
      "%253c": 866,
      "admin/": 867,
      "ity": 868,
      "45": 869,
      "%253a": 870,
      "%252525": 871,
      "%3a": 872,
      "81.1": 873,
      "10.0.": 874,
      "5481.1": 875,
      "10.0.5481.1": 876,
      "10.0.5481.177": 877,
      "\\u0066": 878,
      "0x54": 879,
      "5.199": 880,
      "14.0.5": 881,
      "735.199": 882,
      "14.0.5735.199": 883,
      ".example.com [crlf] user-agent: mozilla/5.0 (windows nt 10.0": 884,
      " safari/537.36 [crlf] accept: application/json [crlf] accept-language: ": 885,
      "template=": 886,
      "7.82": 887,
      "367.82": 888,
      "24.0.6": 889,
      "24.0.6367.82": 890,
      "passwd": 891,
      "99.1": 892,
      "261": 893,
      "--webkitformboundary": 894,
      "------webkitformboundary": 895,
      "20.0.": 896,
      "6099.1": 897,
      "20.0.6099.1": 898,
      "20.0.6099.130": 899,
      "rt": 900,
      "%25252": 901,
      "993.": 902,
      "18.0.5": 903,
      "993.88": 904,
      "18.0.5993.88": 905,
      "&#102": 906,
      "message": 907,
      " safari/537.36 [crlf] accept: application/json;charset=utf-8 [crlf] accept-language: ": 908,
      "%3c": 909,
      " safari/537.36 [crlf] accept: application/json, text/plain, */* [crlf] accept-language: ": 910,
      "66": 911,
      "ce": 912,
      "79": 913,
      ".128": 914,
      "pi": 915,
      ".60": 916,
      "22.0.6": 917,
      "261.128": 918,
      "22.0.6261.128": 919,
      "6422": 920,
      ".0.6422": 921,
      "25.0.6422": 922,
      "25.0.6422.60": 923,
      "ord": 924,
      "ho": 925,
      "sm": 926,
      "\\u0045": 927,
      "&sort=": 928,
      "\\u0054": 929,
      " safari/537.36 [crlf] accept: application/json, text/javascript, */*; q=0.01 [crlf] accept-language: ": 930,
      "d ": 931,
      "system": 932,
      "%5": 933,
      "pt": 934,
      "||": 935,
      "0&#120;": 936,
      "msg=": 937,
      "&#99": 938,
      "; sm": 939,
      " [crlf] accept: */* [crlf] accept-language: ": 940,
      ".example.com [crlf] user-agent: mozilla/5.0 (macintosh; intel mac os x 10_15_7": 941,
      "%252c": 942,
      "xel ": 943,
      "pixel ": 944,
      "; pixel ": 945,
      "cook": 946,
      "mail": 947,
      "password": 948,
      ".example.com [crlf] user-agent: mozilla/5.0 (macintosh; intel mac os x 13_6": 949,
      "cate": 950,
      "en-us,en": 951,
      "17": 952,
      " [crlf] accept: text/plain, */* [crlf] accept-language: ": 953,
      ",zh": 954,
      "zh-cn,zh": 955,
      ",it": 956,
      "it-it,it": 957,
      "foo": 958,
      "gor": 959,
      "orders": 960,
      "t http/1.1 [crlf] host: ": 961,
      "121": 962,
      "%0d": 963,
      "ba": 964,
      "98": 965,
      "%2c": 966,
      "cookie": 967,
      "%0a": 968,
      ",ja": 969,
      "ja-jp,ja": 970,
      "0x45": 971,
      ".example.com [crlf] user-agent: mozilla/5.0 (macintosh; intel mac os x 14_4": 972,
      ".example.com [crlf] user-agent: mozilla/5.0 (macintosh; intel mac os x 12_7": 973,
      "0x53": 974,
      "categor": 975,
      "stat": 976,
      ",fr": 977,
      "fr-fr,fr": 978,
      "ifs": 979,
      "r,pt": 980,
      "pt-br,pt": 981,
      "%255": 982,
      "('": 983,
      "ssion": 984,
      "re ": 985,
      "x86_64) applewebkit/537.36 (khtml, like gecko) chrome/1": 986,
      ";/": 987,
      "&to=20": 988,
      ") applewebkit/605.1.15 (khtml, like gecko) version/16.": 989,
      "\\u006d": 990,
      ") applewebkit/605.1.15 (khtml, like gecko) version/17.2": 991,
      ") applewebkit/605.1.15 (khtml, like gecko) version/16.6": 992,
      ") applewebkit/605.1.15 (khtml, like gecko) version/17.0": 993,
      "%3b%26%23": 994,
      ",de": 995,
      ",es": 996,
      "en-gb,en": 997,
      "de-de,de": 998,
      "es-es,es": 999,
      "\\u0053": 1000,
      "r,ko": 1001,
      "ko-kr,ko": 1002,
      "83": 1003,
      "&from=20": 1004,
      " iphone": 1005,
      "iphone; cpu": 1006,
      "iphone; cpu iphone": 1007,
      "iphone; cpu iphone os ": 1008,
      "\\x": 1009,
      "76": 1010,
      "y=": 1011,
      "read": 1012,
      "ow": 1013,
      "email": 1014,
      "\\u0043": 1015,
      ") applewebkit/605.1.15 (khtml, like gecko) version/17.4": 1016,
      "status": 1017,
      "ti": 1018,
      "0x43": 1019,
      "786": 1020,
      "_6 like mac os x": 1021,
      "sub": 1022,
      "enco": 1023,
      "16_6 like mac os x": 1024,
      "\\u00786": 1025,
      "el": 1026,
      "les": 1027,
      "%252f%252f": 1028,
      ".com": 1029,
      "0x68": 1030,
      "ken": 1031,
      "here ": 1032,
      "-31": 1033,
      "\\u0046": 1034,
      "token": 1035,
      "0x46": 1036,
      "script": 1037,
      "686": 1038,
      "%2f%2f": 1039,
      "lert": 1040,
      "ev": 1041,
      "rep": 1042,
      "; win64; x64; rv:": 1043,
      "ga": 1044,
      "' ": 1045,
      "unt": 1046,
      "')": 1047,
      "xxe": 1048,
      "union": 1049,
      "09": 1050,
      "\\n": 1051,
      "&#97": 1052,
      "vie": 1053,
      ";&#83": 1054,
      "entity": 1055,
      "es/": 1056,
      "as ": 1057,
      "}}\n": 1058,
      "; w": 1059,
      "ubunt": 1060,
      "ubuntu": 1061,
      "\": {\"": 1062,
      "type=": 1063,
      "}}": 1064,
      "\\\\u0065": 1065,
      "ph": 1066,
      "i686": 1067,
      "aarch": 1068,
      "6.1": 1069,
      "40": 1070,
      "\\\\u0074": 1071,
      "&#115": 1072,
      " /api/v1/": 1073,
      "y ": 1074,
      "and ": 1075,
      "%29": 1076,
      "; wow": 1077,
      "75": 1078,
      ">&": 1079,
      ";q=0.8 [crlf] connection: close [crlf] \n": 1080,
      "scrip": 1081,
      ")||": 1082,
      "session": 1083,
      "6.3": 1084,
      "%2529": 1085,
      "115": 1086,
      "6f": 1087,
      ";&#69": 1088,
      "%253d": 1089,
      ".0 [crlf] accept: text/html,application/xhtml+xml,application/xml;q=0.9": 1090,
      "49": 1091,
      "bo": 1092,
      "%7d": 1093,
      " [lf] ": 1094,
      "pr": 1095,
      "ed": 1096,
      "32": 1097,
      "t\": \"": 1098,
      ".example.com [crlf] user-agent: mozilla/5.0 (linux; android 13": 1099,
      "&#100": 1100,
      "stre": 1101,
      "nul": 1102,
      "-01-01": 1103,
      "y\": \"": 1104,
      "get /api/v1/message": 1105,
      ";&#100;": 1106,
      ";q=0.7 [crlf] connection: close [crlf] \n": 1107,
      ";q=0.9 [crlf] connection: keep-alive [crlf] \n": 1108,
      "%257d": 1109,
      "``": 1110,
      "; ubuntu": 1111,
      "x11; ubuntu": 1112,
      "x11; ubuntu; linux ": 1113,
      "eve": 1114,
      "24-0": 1115,
      ";&#104": 1116,
      "users?": 1117,
      "55": 1118,
      "view": 1119,
      "report": 1120,
      ";&#120": 1121,
      "ded": 1122,
      ";q=0.9 [crlf] connection: close [crlf] \n": 1123,
      "doctype": 1124,
      ";q=0.7 [crlf] connection: keep-alive [crlf] \n": 1125,
      "43": 1126,
      "cou": 1127,
      "(select ": 1128,
      "null": 1129,
      "oc": 1130,
      ";q=0.5 [crlf] connection: close [crlf] \n": 1131,
      "\\u0068": 1132,
      "iz": 1133,
      "-- http/1.1 [crlf] host: localhost [crlf] accept: */* [crlf] \n": 1134,
      "118": 1135,
      "r(": 1136,
      " [crlf] connection: close [crlf] content-type: application/xml [crlf]  [crlf] ": 1137,
      "status=": 1138,
      "1b": 1139,
      "%3d": 1140,
      ";q=0.5 [crlf] connection: keep-alive [crlf] \n": 1141,
      "scription": 1142,
      "get /api/v": 1143,
      "__": 1144,
      "products/": 1145,
      "%7b": 1146,
      "gr": 1147,
      "00x786": 1148,
      "0a": 1149,
      "/re": 1150,
      ";q=0.8 [crlf] connection: keep-alive [crlf] \n": 1151,
      "0x49": 1152,
      "109": 1153,
      "get /admin/": 1154,
      ";&#117": 1155,
      " [crlf] connection: keep-alive [crlf] content-type: application/xml [crlf]  [crlf] ": 1156,
      "....": 1157,
      "e/": 1158,
      "00x78": 1159,
      "posi": 1160,
      "90": 1161,
      "ques": 1162,
      ";&#101;&#114": 1163,
      "%257b": 1164,
      "filen": 1165,
      "0x650x74": 1166,
      "sh": 1167,
      ") applewebkit/537.36 (khtml, like gecko) chrome/114.0.5735.199": 1168,
      "%09": 1169,
      "base": 1170,
      "%28": 1171,
      "ult": 1172,
      "dis": 1173,
      "52": 1174,
      "ab": 1175,
      ") applewebkit/537.36 (khtml, like gecko) chrome/110.0.5481.177": 1176,
      "-g": 1177,
      ") applewebkit/537.36 (khtml, like gecko) chrome/124.0.6367.82": 1178,
      "filename": 1179,
      "0x75": 1180,
      "php": 1181,
      "me": 1182,
      "(1": 1183,
      ".example.com [crlf] user-agent: mozilla/5.0 (iphone; cpu iphone os ": 1184,
      "evil": 1185,
      "get": 1186,
      " safari/537.36 [crlf] accept: text/html, application/xhtml+xml, application/xml;q=0.9, */*;q=0.8 [crlf] accept-language: ": 1187,
      "%2528": 1188,
      "&q=": 1189,
      "6c": 1190,
      ") applewebkit/537.36 (khtml, like gecko) chrome/118.0.5993.88": 1191,
      "{{": 1192,
      "chr(": 1193,
      "0x650x72": 1194,
      "location": 1195,
      "71": 1196,
      "mult": 1197,
      "ipar": 1198,
      ";&#89": 1199,
      " th": 1200,
      "multipar": 1201,
      "multipart/": 1202,
      "0x76": 1203,
      "get /api/v1/messages/": 1204,
      " [crlf] content-type: multipart/": 1205,
      "=----": 1206,
      "=\"file": 1207,
      "boundary=----": 1208,
      "form-data; boundary=----": 1209,
      " [crlf] content-type: multipart/form-data; boundary=----": 1210,
      " [crlf] content-type: multipart/form-data; boundary=----webkitformboundary": 1211,
      ") applewebkit/605.1.15 (khtml, like gecko) version/17.2 safari/605.1.15": 1212,
      "stream": 1213,
      ") applewebkit/537.36 (khtml, like gecko) chrome/120.0.6099.130": 1214,
      "up": 1215,
      ") applewebkit/537.36 (khtml, like gecko) chrome/125.0.6422.60": 1216,
      "root": 1217,
      ") applewebkit/537.36 (khtml, like gecko) chrome/122.0.6261.128": 1218,
      ") applewebkit/605.1.15 (khtml, like gecko) version/16.6 safari/605.1.15": 1219,
      "\\u0049": 1220,
      "%255cx": 1221,
      ") applewebkit/605.1.15 (khtml, like gecko) version/17.0 safari/605.1.15": 1222,
      " safari/537.36 [crlf] accept: text/html,application/xhtml+xml,application/xml;q=0.9,image/avif,image/webp,*/*;q=0.8 [crlf] accept-language: ": 1223,
      "filter": 1224,
      "ci": 1225,
      "&#70": 1226,
      " safari/537.36 [crlf] accept: text/html,application/xhtml+xml,application/xml;q=0.9,image/webp,*/*;q=0.8 [crlf] accept-language: ": 1227,
      "bul": 1228,
      "rf": 1229,
      "tr": 1230,
      "0x77": 1231,
      " http/1.1 [crlf] host: api.example.io [crlf] user-agent: mozilla/5.0 (macintosh; intel mac os x ": 1232,
      "&#112": 1233,
      ";</": 1234,
      "c0": 1235,
      ">\n": 1236,
      " safari/537.36 [crlf] accept: text/html,application/xhtml+xml,application/xml;q=0.9,*/*;q=0.8 [crlf] accept-language: ": 1237,
      "um": 1238,
      "bulk": 1239,
      "><!": 1240,
      "quer": 1241,
      "load": 1242,
      "not": 1243,
      "58": 1244,
      ") applewebkit/605.1.15 (khtml, like gecko) version/17.4 safari/605.1.15": 1245,
      "be": 1246,
      "%2522%252c": 1247,
      "124": 1248,
      "md": 1249,
      "etc/": 1250,
      ";&#111;&#111": 1251,
      "windows nt 10.0": 1252,
      "notif": 1253,
      "92": 1254,
      ";&#119": 1255,
      "name\": \"": 1256,
      "\\\",": 1257,
      "-30": 1258,
      "tet-": 1259,
      "tet-stream": 1260,
      "octet-stream": 1261,
      "33": 1262,
      "-12": 1263,
      "48": 1264,
      "%65": 1265,
      ":///": 1266,
      "../../": 1267,
      "get /api/v1/report": 1268,
      ".example.com [crlf] user-agent: mozilla/5.0 (x11; linux aarch": 1269,
      "\"; ": 1270,
      "alert": 1271,
      ".example.com [crlf] user-agent: mozilla/5.0 (x11; linux i686": 1272,
      "get /api/v1/users/": 1273,
      "pay": 1274,
      "reques": 1275,
      "\": \"host=": 1276,
      "62": 1277,
      "6e": 1278,
      "0x59": 1279,
      "disposi": 1280,
      ".example.com [crlf] user-agent: mozilla/5.0 (windows nt 10.0; wow": 1281,
      "notification": 1282,
      "tion: form-data; ": 1283,
      "--\n": 1284,
      "disposition: form-data; ": 1285,
      "disposition: form-data; name": 1286,
      " [crlf] ------webkitformboundary": 1287,
      " [crlf] content-disposition: form-data; name": 1288,
      " [crlf]  [crlf] ------webkitformboundary": 1289,
      " [crlf]  [crlf]  [crlf] ------webkitformboundary": 1290,
      " [crlf] content-type: application/octet-stream": 1291,
      "=\"file\"; ": 1292,
      " [crlf] content-disposition: form-data; name=\"file\"; ": 1293,
      " [crlf] content-type: application/octet-stream [crlf]  [crlf]  [crlf] ------webkitformboundary": 1294,
      " [crlf] content-disposition: form-data; name=\"file\"; filename": 1295,
      "%25253": 1296,
      ".0) gecko/20100101 firefox/124": 1297,
      "char(": 1298,
      "124.0) gecko/20100101 firefox/124": 1299,
      "\" [crlf] content-type: application/octet-stream [crlf]  [crlf]  [crlf] ------webkitformboundary": 1300,
      "le=": 1301,
      "%22%2c": 1302,
      "item": 1303,
      "rat": 1304,
      "0x44": 1305,
      "-12-31": 1306,
      ".0) gecko/20100101 firefox/118": 1307,
      "118.0) gecko/20100101 firefox/118": 1308,
      "525": 1309,
      ";&#118": 1310,
      " where ": 1311,
      "fe": 1312,
      ".example.com [crlf] user-agent: mozilla/5.0 (windows nt 6.1": 1313,
      "a ": 1314,
      ".0) gecko/20100101 firefox/109": 1315,
      "109.0) gecko/20100101 firefox/109": 1316,
      "125": 1317,
      "get /api/v1/fil": 1318,
      ".example.com [crlf] user-agent: mozilla/5.0 (windows nt 6.3": 1319,
      ".0) gecko/20100101 firefox/115": 1320,
      "115.0) gecko/20100101 firefox/115": 1321,
      "event": 1322,
      "tru": 1323,
      " http/1.1": 1324,
      "0x6f0x6f": 1325,
      "\\u0044": 1326,
      "x86_64; rv:": 1327,
      "category=": 1328,
      "or ": 1329,
      "21.0": 1330,
      "\\u0059": 1331,
      "0x6f0x6e": 1332,
      "\\\\u0061": 1333,
      ".0) gecko/20100101 firefox/121.0": 1334,
      "121.0) gecko/20100101 firefox/121.0": 1335,
      "%253a%252f%252f": 1336,
      "<?": 1337,
      "port": 1338,
      "=\"'": 1339,
      "select": 1340,
      "bu": 1341,
      "ver": 1342,
      ")||chr(": 1343,
      "..\\": 1344,
      "; sm-g": 1345,
      "x-": 1346,
      "\\\\u006e": 1347,
      "base64": 1348,
      "our": 1349,
      "%5cx": 1350,
      "tit": 1351,
      ";&#97;&#115": 1352,
      ";&#111;&#110": 1353,
      "(1)": 1354,
      "true": 1355,
      "\", http/1.1 [crlf] host: ": 1356,
      "ted": 1357,
      "v2/": 1358,
      ".0) gecko/20100101 firefox/125": 1359,
      "125.0) gecko/20100101 firefox/125": 1360,
      "]><": 1361,
      "\"?": 1362,
      ".example.com [crlf] user-agent: mozilla/5.0 (x11; ubuntu; linux ": 1363,
      "anal": 1364,
      "tic": 1365,
      "/v1/": 1366,
      "93": 1367,
      "&#69": 1368,
      "ne": 1369,
      "author": 1370,
      "; pixel 7": 1371,
      "%3a%2f%2f": 1372,
      "\\u006f\\u006f": 1373,
      ";&#108;": 1374,
      "?page=": 1375,
      " [crlf] content-disposition: form-data; name=\"file\"; filename=\"": 1376,
      "hook": 1377,
      "; sm-g99": 1378,
      "525f": 1379,
      "analy": 1380,
      "-a525f": 1381,
      "12; sm": 1382,
      "12; sm-a525f": 1383,
      "ll": 1384,
      "\\u0076": 1385,
      "; sm-g991b": 1386,
      "2f": 1387,
      "0d": 1388,
      "aph": 1389,
      "s?page=": 1390,
      " al": 1391,
      "&limit=10": 1392,
      "get /search?q=-": 1393,
      "&limit=50": 1394,
      "cookie: ": 1395,
      "she": 1396,
      "dele": 1397,
      "6d": 1398,
      "=\"1.0": 1399,
      "\\\\u0063": 1400,
      "\"?><!": 1401,
      "&#68": 1402,
      "21": 1403,
      "graph": 1404,
      " safari/537.36 [crlf] accept: */* [crlf] accept-language: ": 1405,
      "\">": 1406,
      "${ifs": 1407,
      "${ifs}": 1408,
      " [cr] ": 1409,
      "14; pixel ": 1410,
      "14; pixel 8": 1411,
      "get /api/v2/": 1412,
      "?limit=": 1413,
      "no": 1414,
      "\\u0075": 1415,
      "500x": 1416,
      "&limit=25": 1417,
      "ig": 1418,
      ";&#115;": 1419,
      "ice": 1420,
      " http/1.1 [crlf] host: example.com [crlf] user-agent: mozilla/5.0 (macintosh; intel mac os x ": 1421,
      "ql": 1422,
      "73;&#": 1423,
      "email\": \"": 1424,
      "iza": 1425,
      "1.1": 1426,
      "\\\\u0073": 1427,
      "webhook": 1428,
      "%25252f": 1429,
      "analytic": 1430,
      "%252a": 1431,
      "&status=": 1432,
      "84": 1433,
      " safari/537.36 [crlf] accept: text/plain, */* [crlf] accept-language: ": 1434,
      ".0 [crlf] accept: application/json [crlf] accept-language: ": 1435,
      "\\\\u006f": 1436,
      "authoriza": 1437,
      "s?limit=": 1438,
      "gi": 1439,
      "delete": 1440,
      "authorization: ": 1441,
      " [crlf] authorization: ": 1442,
      "&limit=100": 1443,
      ";&#112;": 1444,
      "0x70": 1445,
      "delete /api/v1/": 1446,
      ";&#103": 1447,
      "0x67": 1448,
      "go": 1449,
      "\\\\x": 1450,
      "action": 1451,
      "%60": 1452,
      "jec": 1453,
      "=1": 1454,
      "comment": 1455,
      "post": 1456,
      "http://": 1457,
      "&limit=20": 1458,
      ".0 [crlf] accept: application/json, text/plain, */* [crlf] accept-language: ": 1459,
      ";&#97;&#116": 1460,
      "ff": 1461,
      ".0 [crlf] accept: application/json, text/javascript, */*; q=0.01 [crlf] accept-language: ": 1462,
      "\\u0077": 1463,
      "ding": 1464,
      "0x41": 1465,
      "=host=": 1466,
      "etc/passwd": 1467,
      "cmd": 1468,
      "acti": 1469,
      "rating": 1470,
      "str": 1471,
      "0x62": 1472,
      ":80": 1473,
      "41": 1474,
      "request": 1475,
      "%2a": 1476,
      "\\u0065\\u0074": 1477,
      "war": 1478,
      "\\u0041": 1479,
      "rest": 1480,
      "ipad": 1481,
      "&#114": 1482,
      "&#105": 1483,
      "\\\\u0072": 1484,
      "; cpu os ": 1485,
      "ipad; cpu os ": 1486,
      "ipad; cpu os 16_6 like mac os x": 1487,
      "set": 1488,
      "get /api/v1/reports/": 1489,
      "\\u0065\\u0072": 1490,
      "price": 1491,
      "graphql": 1492,
      ".0 [crlf] accept: application/json;charset=utf-8 [crlf] accept-language: ": 1493,
      " [crlf] accept: text/html,application/xhtml+xml,application/xml;q=0.9,image/webp,*/*;q=0.8 [crlf] accept-language: ": 1494,
      " [crlf] cookie: ": 1495,
      "57": 1496,
      "_4 like mac os x": 1497,
      "17_4 like mac os x": 1498,
      "29": 1499,
      "\\&#120;": 1500,
      "0x690x6c": 1501,
      "='": 1502,
      "ae": 1503,
      "s\": \"": 1504,
      "&#104": 1505,
      "ing ": 1506,
      "payment": 1507,
      "%2524": 1508,
      "evil.com": 1509,
      "rest/v1/": 1510,
      "67;": 1511,
      "6-30": 1512,
      "0x690x6e": 1513,
      "ive": 1514,
      " [crlf] accept: text/html,application/xhtml+xml,application/xml;q=0.9,*/*;q=0.8 [crlf] accept-language: ": 1515,
      "ru-ru [crlf] connection: close [crlf] \n": 1516,
      "%24": 1517,
      "27": 1518,
      "post /admin/": 1519,
      "get /api/v1/files/": 1520,
      "from ": 1521,
      " [crlf] accept: text/html,application/xhtml+xml,application/xml;q=0.9,image/avif,image/webp,*/*;q=0.8 [crlf] accept-language: ": 1522,
      "%2521": 1523,
      "pt-br": 1524,
      "ko-kr": 1525,
      "25-0": 1526,
      "add": 1527,
      "0x610x74": 1528,
      "ru-ru [crlf] connection: keep-alive [crlf] \n": 1529,
      "car": 1530,
      "46": 1531,
      "\\\\u0069": 1532,
      "%253b%2526%252311": 1533,
      "&#101;": 1534,
      "89": 1535,
      " all ": 1536,
      ",null": 1537,
      "post /api/v1/auth/re": 1538,
      "39": 1539,
      "\\\\u0078": 1540,
      "post /api/v1/auth/log": 1541,
      "></": 1542,
      "0x450x4": 1543,
      "conten": 1544,
      "&#102;": 1545,
      "par": 1546,
      "post /api/v1/auth/password": 1547,
      ".25": 1548,
      "act": 1549,
      "get /search?q=1'": 1550,
      "subscription": 1551,
      "\\\\0x7": 1552,
      "get /api/v1/products/": 1553,
      "\\u004f": 1554,
      "se ": 1555,
      "_id": 1556,
      "to ": 1557,
      "&category=": 1558,
      "113": 1559,
      "0x4f": 1560,
      "2e": 1561,
      "curl": 1562,
      "set-": 1563,
      "nl-nl [crlf] connection: close [crlf] \n": 1564,
      "% ": 1565,
      ";&#102": 1566,
      "role=": 1567,
      "per": 1568,
      "\\u006f\\u006e": 1569,
      "\\u0045\\u004": 1570,
      ";&#121": 1571,
      "nl-nl [crlf] connection: keep-alive [crlf] \n": 1572,
      "notifications/": 1573,
      "is ": 1574,
      "0x730x73": 1575,
      "%}": 1576,
      "\"}}\n": 1577,
      "vi": 1578,
      "%21": 1579,
      "%252520": 1580,
      ";&#83;": 1581,
      "\\u0061\\u0073": 1582,
      "&#67;": 1583,
      "post /api/v1/orders": 1584,
      "end": 1585,
      "and (": 1586,
      "all": 1587,
      "db": 1588,
      "\\u0069\\u006c": 1589,
      "review": 1590,
      "0x630x6f": 1591,
      "%253c%2521": 1592,
      "\\u0050": 1593,
      "\\\"'": 1594,
      "\\\\u0070": 1595,
      "ck": 1596,
      ".3": 1597,
      "': ": 1598,
      "union all ": 1599,
      "resse": 1600,
      "  ": 1601,
      "export": 1602,
      ";&#111;&#109": 1603,
      "\\\\u00786": 1604,
      ";&#84;&#89": 1605,
      ";&#116;&#116": 1606,
      "union all select ": 1607,
      "', ": 1608,
      "42": 1609,
      ".example.com [crlf] user-agent: mozilla/5.0 (linux; android 13; pixel 7": 1610,
      ".example.com [crlf] user-agent: mozilla/5.0 (linux; android 13; sm-g991b": 1611,
      ".example.com [crlf] user-agent: mozilla/5.0 (x11; linux aarch64) applewebkit/537.36 (khtml, like gecko) chrome/1": 1612,
      "%2560": 1613,
      "set http/1.1 [crlf] host: ": 1614,
      "<!entity": 1615,
      "tch": 1616,
      ".example.com [crlf] user-agent: mozilla/5.0 (linux; android 12; sm-a525f": 1617,
      "mar": 1618,
      "addresse": 1619,
      "encoding": 1620,
      "0x610x64": 1621,
      "en ": 1622,
      "85": 1623,
      ".example.com [crlf] user-agent: mozilla/5.0 (windows nt 10.0; wow64) applewebkit/537.36 (khtml, like gecko) chrome/1": 1624,
      "po": 1625,
      ";&#116;&#99": 1626,
      "0\\u0078": 1627,
      "```": 1628,
      "\": \"url=": 1629,
      "0x610x6c": 1630,
      "\\\\u006c": 1631,
      "\\\\u0075006": 1632,
      "order": 1633,
      ".example.com [crlf] user-agent: mozilla/5.0 (linux; android 14; pixel 8": 1634,
      ")) ": 1635,
      ";&#79": 1636,
      "# http/1.1 [crlf] host: localhost [crlf] accept: */* [crlf] \n": 1637,
      " sys": 1638,
      "xss": 1639,
      "..%2f": 1640,
      "patch": 1641,
      "\\\\&#11": 1642,
      ".example.com [crlf] user-agent: mozilla/5.0 (x11; linux x86_64) applewebkit/537.36 (khtml, like gecko) chrome/1": 1643,
      "34": 1644,
      ".example.com [crlf] user-agent: mozilla/5.0 (windows nt 10.0; win64; x64) applewebkit/537.36 (khtml, like gecko) chrome/1": 1645,
      "session=": 1646,
      "%0d%0a": 1647,
      "late": 1648,
      "tadata": 1649,
      ";&#77": 1650,
      " and ": 1651,
      "\\\\u0064": 1652,
      ".4": 1653,
      "or/": 1654,
      "confi": 1655,
      ";&#105;&#110": 1656,
      ".example.com [crlf] user-agent: mozilla/5.0 (windows nt 6.1; win64; x64) applewebkit/537.36 (khtml, like gecko) chrome/1": 1657,
      "3/": 1658,
      "https": 1659,
      "19": 1660,
      "1,": 1661,
      "bas": 1662,
      "%3c%21": 1663,
      "0x540x59": 1664,
      "=redirect=": 1665,
      "srf": 1666,
      "&#99;": 1667,
      "\\\\0x7500": 1668,
      "bli": 1669,
      ".example.com [crlf] user-agent: mozilla/5.0 (windows nt 6.3; win64; x64) applewebkit/537.36 (khtml, like gecko) chrome/1": 1670,
      "fres": 1671,
      "; &#": 1672,
      "%74": 1673,
      ";&#78": 1674,
      " the ": 1675,
      "',": 1676,
      "s http/1.1 [crlf] host: dev": 1677,
      "encoded": 1678,
      "\\\\&#117;00": 1679,
      "fresh": 1680,
      ";&#80": 1681,
      "00000000": 1682,
      "active": 1683,
      ") applewebkit/605.1.15 (khtml, like gecko) version/17.0 mobile/15e148 safari/604.1": 1684,
      "/reset http/1.1 [crlf] host: ": 1685,
      "%253f": 1686,
      "0x650x740x63": 1687,
      ") applewebkit/605.1.15 (khtml, like gecko) version/16.6 mobile/15e148 safari/604.1": 1688,
      "nc": 1689,
      "publi": 1690,
      "3c": 1691,
      "rc": 1692,
      "_token": 1693,
      "title": 1694,
      "set-cookie": 1695,
      "roles": 1696,
      "=ga": 1697,
      "\\0x75006": 1698,
      "es?": 1699,
      "_ga": 1700,
      ";&#67": 1701,
      "users ": 1702,
      "73;&#70": 1703,
      "700000000": 1704,
      "=ga1.1": 1705,
      "_ga=ga1.1": 1706,
      "%250a": 1707,
      "tag": 1708,
      "password\": \"": 1709,
      ") applewebkit/605.1.15 (khtml, like gecko) version/17.2 mobile/15e148 safari/604.1": 1710,
      "s http/1.1 [crlf] host: api": 1711,
      "config": 1712,
      "des": 1713,
      "\\u0061\\u0074": 1714,
      "47": 1715,
      ". ": 1716,
      "\\u0062": 1717,
      "\\u0067": 1718,
      "&type=": 1719,
      "s http/1.1 [crlf] host: app": 1720,
      "73;&#70;&#83;": 1721,
      "%61": 1722,
      "new": 1723,
      "%255b": 1724,
      ".example.com [crlf] user-agent: mozilla/5.0 (x11; ubuntu; linux x86_64) applewebkit/537.36 (khtml, like gecko) chrome/1": 1725,
      "\" ": 1726,
      "post /admin/users/": 1727,
      "0x700x61": 1728,
      "&#65": 1729,
      "\\u0054\\u0059": 1730,
      " wh": 1731,
      "srf=": 1732,
      "ith": 1733,
      "..%252f": 1734,
      "alth": 1735,
      ".example.com [crlf] user-agent: mozilla/5.0 (iphone; cpu iphone os 17_4 like mac os x": 1736,
      "s http/1.1 [crlf] host: staging": 1737,
      "s http/1.1 [crlf] host: backend": 1738,
      ".example.com [crlf] user-agent: mozilla/5.0 (ipad; cpu os 16_6 like mac os x": 1739,
      "ids\": \"": 1740,
      "%3b%26%2311": 1741,
      "health": 1742,
      "0x79": 1743,
      "%2500": 1744,
      "69.25": 1745,
      "curl/": 1746,
      ";&#105;&#108": 1747,
      "\\u0069\\u006e": 1748,
      "mi": 1749,
      ";&#105;&#111;&#110": 1750,
      " <": 1751,
      "0&#120;6": 1752,
      "count": 1753,
      "s http/1.1 [crlf] host: www": 1754,
      "ation": 1755,
      "py": 1756,
      "a http/1.1 [crlf] host: localhost [crlf] accept: */* [crlf] \n": 1757,
      " [crlf] user-agent: mozilla/5.0 (macintosh; intel mac os x ": 1758,
      ";&#97;&#115;&#115": 1759,
      " [crlf] connection: close [crlf] content-type: multipart/form-data; boundary=----webkitformboundary": 1760,
      "\", \"name\": \"": 1761,
      "': '": 1762,
      "),": 1763,
      ".example.com [crlf] user-agent: mozilla/5.0 (iphone; cpu iphone os 16_6 like mac os x": 1764,
      "ource": 1765,
      "get /v2/": 1766,
      "ea": 1767,
      "0\\u00786": 1768,
      "t(": 1769,
      "%2e": 1770,
      "%3f": 1771,
      ";/**/": 1772,
      "man": 1773,
      "38": 1774,
      "%00x": 1775,
      "of": 1776,
      "back": 1777,
      "56": 1778,
      ":/": 1779,
      "&#67": 1780,
      "leep": 1781,
      "&#70;": 1782,
      ".0.1": 1783,
      ") applewebkit/605.1.15 (khtml, like gecko) version/17.4 mobile/15e148 safari/604.1": 1784,
      "0x740x65": 1785,
      "&#99;&#111;&#109": 1786,
      ") applewebkit/537.36 (khtml, like gecko) chrome/110.0.5481.177 mobile": 1787,
      "shell": 1788,
      "&#104;&#116;&#116": 1789,
      "%2520%2522": 1790,
      "users": 1791,
      "exec": 1792,
      "${&#": 1793,
      "patch /api/v1/": 1794,
      " [crlf] connection: keep-alive [crlf] content-type: multipart/form-data; boundary=----webkitformboundary": 1795,
      "%5b": 1796,
      "vari": 1797,
      ";&#97;&#115;&#115;&#119": 1798,
      "\">]><": 1799,
      "\\\\u006d": 1800,
      "23-01-01": 1801,
      "subjec": 1802,
      "73;&#70;&#83;}": 1803,
      "${&#73;&#70;&#83;}": 1804,
      "thon": 1805,
      "1 ": 1806,
      ".__": 1807,
      "zip": 1808,
      "ange": 1809,
      "()": 1810,
      ".2": 1811,
      "7-01": 1812,
      "at ": 1813,
      "ly": 1814,
      "urn": 1815,
      ",-": 1816,
      "etc%252f": 1817,
      "4d": 1818,
      "0x680x74": 1819,
      " -": 1820,
      ";q=0.8 [crlf] connection: keep-alive [crlf] content-type: application/json [crlf]  [crlf] {\"": 1821,
      "\"```": 1822,
      "em": 1823,
      "as t": 1824,
      "> [crlf] host: ": 1825,
      ";q=0.5 [crlf] connection: keep-alive [crlf] content-type: application/json [crlf]  [crlf] {\"": 1826,
      "%20%22": 1827,
      "0x780x65": 1828,
      "&to=2024-0": 1829,
      "mark": 1830,
      ") applewebkit/537.36 (khtml, like gecko) chrome/124.0.6367.82 mobile": 1831,
      "get /api/v1/analytic": 1832,
      "python": 1833,
      ".s": 1834,
      "/b": 1835,
      ") applewebkit/537.36 (khtml, like gecko) chrome/114.0.5735.199 mobile": 1836,
      "i ": 1837,
      "23-0": 1838,
      "ntim": 1839,
      "&#100;": 1840,
      "cata": 1841,
      "runtim": 1842,
      "%64": 1843,
      ";q=0.9 [crlf] connection: keep-alive [crlf] content-type: application/json [crlf]  [crlf] {\"": 1844,
      "etc%2f": 1845,
      "\\u0063\\u006f": 1846,
      "%24%7b": 1847,
      "get /api/v1/analytics/": 1848,
      "%253b%2520": 1849,
      "rn": 1850,
      ";&#84;&#": 1851,
      "gu": 1852,
      "0x500x": 1853,
      ";q=0.5 [crlf] connection: close [crlf] content-type: application/json [crlf]  [crlf] {\"": 1854,
      "ri": 1855,
      "_id\": \"": 1856,
      "qty": 1857,
      "\",\n": 1858,
      "categori": 1859,
      "catalog": 1860,
      "35": 1861,
      "0x720x69": 1862,
      "4-01": 1863,
      "23-12-31": 1864,
      "ache": 1865,
      ") applewebkit/537.36 (khtml, like gecko) chrome/118.0.5993.88 mobile": 1866,
      "ument": 1867,
      "get /api/v1/categori": 1868,
      "date": 1869,
      ";&#111;&#99": 1870,
      ";q=0.9 [crlf] connection: close [crlf] content-type: application/json [crlf]  [crlf] {\"": 1871,
      "forwar": 1872,
      "24-01-01": 1873,
      "s http/1.1 [crlf] host: example.com [crlf] user-agent: mozilla/5.0 (": 1874,
      "resource": 1875,
      "', '": 1876,
      "pon": 1877,
      "document": 1878,
      ";q=0.7 [crlf] connection: keep-alive [crlf] content-type: application/json [crlf]  [crlf] {\"": 1879,
      "actu": 1880,
      "t/item": 1881,
      ") applewebkit/537.36 (khtml, like gecko) chrome/122.0.6261.128 mobile": 1882,
      "cart/item": 1883,
      "script>": 1884,
      ";q=0.7 [crlf] connection: close [crlf] content-type: application/json [crlf]  [crlf] {\"": 1885,
      ") applewebkit/537.36 (khtml, like gecko) chrome/125.0.6422.60 mobile": 1886,
      ";&#98": 1887,
      "%255d": 1888,
      " '": 1889,
      "in ": 1890,
      "3-31": 1891,
      "where ": 1892,
      ") applewebkit/537.36 (khtml, like gecko) chrome/": 1893,
      "37": 1894,
      ";q=0.8 [crlf] connection: close [crlf] content-type: application/json [crlf]  [crlf] {\"": 1895,
      ") applewebkit/537.36 (khtml, like gecko) chrome/120.0.6099.130 mobile": 1896,
      ";&#97;&#115;&#115;&#119;&#100;": 1897,
      "''": 1898,
      "api.example.io": 1899,
      "0x690x6f0x6e": 1900,
      "&role=": 1901,
      "ator/": 1902,
      "2,": 1903,
      "pen": 1904,
      "get /actu": 1905,
      "get /actuator/": 1906,
      "%69": 1907,
      "linux; android 13": 1908,
      "else ": 1909,
      "ded-": 1910,
      "_s": 1911,
      "forwarded-": 1912,
      "%5d": 1913,
      "&#98": 1914,
      "ret": 1915,
      "x-forwarded-": 1916,
      "&#101;&#116;&#99": 1917,
      "/3.": 1918,
      "24-12-31": 1919,
      ".0 [crlf] accept: text/html,application/xhtml+xml,application/xml;q=0.9,*/*;q=0.8 [crlf] accept-language: ": 1920,
      "%253c%252f": 1921,
      "query\": \"": 1922,
      "\\&#110": 1923,
      "0x770x64": 1924,
      "call": 1925,
      "ble": 1926,
      ";&#114;&#105": 1927,
      "t,": 1928,
      "0x630x6f0x6d": 1929,
      "get /search?q=1\"": 1930,
      "bod": 1931,
      "94": 1932,
      "0x490x46": 1933,
      "ank": 1934,
      ",null,null": 1935,
      "\\u0078\\u0065": 1936,
      "description": 1937,
      "y-": 1938,
      "%2522%2527": 1939,
      "0x660x690x6c": 1940,
      "0x730x730x770x64": 1941,
      "coupon": 1942,
      "%252500": 1943,
      "0x730x63": 1944,
      "0x490x460x53": 1945,
      "return": 1946,
      "'>": 1947,
      "=file=": 1948,
      "%2524%257b": 1949,
      "ue": 1950,
      "key": 1951,
      "proc": 1952,
      "%5cn": 1953,
      "case": 1954,
      "api/": 1955,
      "\\u004c": 1956,
      " http/1.1 [crlf] host: api.example.io [crlf] user-agent: mozilla/5.0 (x11; linux ": 1957,
      "\\u0065\\u0074\\u0063": 1958,
      "_type=": 1959,
      "event_type=": 1960,
      "location: ": 1961,
      "&#120;&#120": 1962,
      "%c0": 1963,
      "vo": 1964,
      ".0 [crlf] accept: text/html, application/xhtml+xml, application/xml;q=0.9, */*;q=0.8 [crlf] accept-language: ": 1965,
      "&#108": 1966,
      "0x4c": 1967,
      "122": 1968,
      "\\u0061\\u0073\\u0073": 1969,
      "4f": 1970,
      "fied": 1971,
      "; _ga=ga1.1": 1972,
      "(5": 1973,
      "the": 1974,
      "0x730x65": 1975,
      "%252e": 1976,
      "&#101;&#116;&#99;/": 1977,
      "callback": 1978,
      "%c0%": 1979,
      "echo": 1980,
      "profile": 1981,
      " [crlf] connection: keep-alive [crlf] content-type: application/xml [crlf]  [crlf] <?": 1982,
      "0x6b": 1983,
      "0x700x610x730x730x770x64": 1984,
      "products?": 1985,
      "&#102;&#105;&#108": 1986,
      ".0 [crlf] accept: text/html,application/xhtml+xml,application/xml;q=0.9,image/webp,*/*;q=0.8 [crlf] accept-language: ": 1987,
      "&#69;": 1988,
      "http/1.1 [crlf] host: localhost [crlf] accept: */* [crlf] \n": 1989,
      "; csrf=": 1990,
      ".d": 1991,
      "ain": 1992,
      "0x680x740x74": 1993,
      "0x700x74": 1994,
      "%3c%2f": 1995,
      "df": 1996,
      " [crlf] connection: close [crlf] content-type: application/xml [crlf]  [crlf] <?": 1997,
      "post /api/": 1998,
      "%22%27": 1999,
      "; rv:118.0) gecko/20100101 firefox/118": 2000,
      ".1700000000": 2001,
      "/**/\"": 2002,
      "\\u0061\\u0064": 2003,
      "&#104;&#116;&#116;&#112;": 2004,
      "-t,": 2005,
      "change": 2006,
      "91": 2007,
      ";&#65": 2008,
      "\\&#117;006": 2009,
      "leep(5": 2010,
      "qty\": \"": 2011,
      "3e": 2012,
      "87": 2013,
      "ong": 2014,
      "path=..": 2015,
      "0x780x780x65": 2016,
      "s/2": 2017,
      "etc%252fpasswd": 2018,
      ")+": 2019,
      "intern": 2020,
      "${0x490x460x53": 2021,
      "=\"1.0\"?><!": 2022,
      "${0x490x460x53}": 2023,
      "nex": 2024,
      "\\u0066\\u0069\\u006c": 2025,
      "name=": 2026,
      "[\"": 2027,
      ".&#99;&#111;&#109": 2028,
      "30%": 2029,
      "; session=": 2030,
      "%255cn": 2031,
      "%250d": 2032,
      "0x650x720x74": 2033,
      ";&#105;&#111;&#110;": 2034,
      "read=": 2035,
      "....//": 2036,
      "\\u0042": 2037,
      "0x6f0x63": 2038,
      "\\u0061\\u0073\\u0073\\u0077": 2039,
      ".0 [crlf] accept: text/html,application/xhtml+xml,application/xml;q=0.9,image/avif,image/webp,*/*;q=0.8 [crlf] accept-language: ": 2040,
      "%24%7bifs": 2041,
      "gre": 2042,
      "it ": 2043,
      "%63": 2044,
      " m": 2045,
      "aa": 2046,
      "\\u0078\\u0078\\u0065": 2047,
      "internal": 2048,
      "h*": 2049,
      "src": 2050,
      "tock": 2051,
      ");": 2052,
      "ker": 2053,
      "0x42": 2054,
      "&#116": 2055,
      "\\r": 2056,
      "0xxe": 2057,
      "etc%2fpasswd": 2058,
      " [crlf] x-forwarded-": 2059,
      "\\u0061\\u006c": 2060,
      ";&#101;&#115": 2061,
      "; rv:121.0) gecko/20100101 firefox/121.0": 2062,
      "ork": 2063,
      "\\\\\\\\u007500": 2064,
      "; rv:124.0) gecko/20100101 firefox/124": 2065,
      "://1": 2066,
      " b": 2067,
      "you": 2068,
      "plan": 2069,
      "rating=": 2070,
      "%2520%2527": 2071,
      "\\u0061\\u0073\\u0073\\u0077\\u0064": 2072,
      "ls": 2073,
      "&#66": 2074,
      " [crlf] user-agent: mozilla/5.0 (windows nt 10.0": 2075,
      "; rv:109.0) gecko/20100101 firefox/109": 2076,
      "0x720x690x700x74": 2077,
      "\\u0066\\u006f\\u006f": 2078,
      "ali": 2079,
      "&#102;&#111;&#111": 2080,
      "action\": \"": 2081,
      "postman": 2082,
      "test": 2083,
      "\\\",\"}\n": 2084,
      "\\u0065\\u006e": 2085,
      "0x650x740x63/": 2086,
      "nce": 2087,
      "omain": 2088,
      "by": 2089,
      "%3b%20": 2090,
      "xxe;</": 2091,
      "case wh": 2092,
      "') ": 2093,
      "archive": 2094,
      "%24%7bifs%7d": 2095,
      "ams": 2096,
      "\", \"email\": \"": 2097,
      "\\u0053}": 2098,
      "e/7.": 2099,
      "runtime/7.": 2100,
      "postmanruntime/7.": 2101,
      "post /api/v1/subscription": 2102,
      "post /api/graphql": 2103,
      "coupon\": \"": 2104,
      "-read": 2105,
      "ax": 2106,
      ";&#107": 2107,
      "\\\\u0068": 2108,
      "auth/token": 2109,
      "&#68;": 2110,
      "post /rest/v1/": 2111,
      "post /rest/v1/auth/token": 2112,
      "post /api/v1/notifications/": 2113,
      "mark-read": 2114,
      "post /api/v1/notifications/mark-read": 2115,
      "access": 2116,
      ";&#97;&#116;&#97": 2117,
      "26": 2118,
      ".example.com [crlf] \n": 2119,
      "; rv:125.0) gecko/20100101 firefox/125": 2120,
      "\": \"template=": 2121,
      ":80/": 2122,
      "\\\\\\\"": 2123,
      "sp": 2124,
      "; rv:115.0) gecko/20100101 firefox/115": 2125,
      "t\": \"url=": 2126,
      ";&#101;&#114;&#116;": 2127,
      ")-- http/1.1 [crlf] host: localhost [crlf] accept: */* [crlf] \n": 2128,
      "template=\"'": 2129,
      " http/1.1 [crlf] host: example.com [crlf] user-agent: mozilla/5.0 (x11; linux ": 2130,
      "\\u0070\\u0061\\u0073\\u0073\\u0077\\u0064": 2131,
      " [crlf] content-disposition: form-data; name=\"file\"; filename=\"file=": 2132,
      "https://": 2133,
      ".php": 2134,
      "p>": 2135,
      " [crlf] location: ": 2136,
      ";&#101;&#116": 2137,
      "host: redirect=": 2138,
      " [crlf] x-forwarded-host: redirect=": 2139,
      "ure": 2140,
      "%20%27": 2141,
      "url=redirect=": 2142,
      "strong": 2143,
      "gis": 2144,
      "python-": 2145,
      ".example.com [crlf] user-agent: mozilla/5.0 (windows nt 10.0; win64; x64; rv:": 2146,
      "0x730x630x720x690x700x74": 2147,
      "pre": 2148,
      "\\u0079": 2149,
      "net": 2150,
      "requests/2": 2151,
      "python-requests/2": 2152,
      "def": 2153,
      "then ": 2154,
      "\\u0069\\u006f\\u006e": 2155,
      "\\0x6e": 2156,
      "0x650x6e": 2157,
      "curl/7.": 2158,
      "sum": 2159,
      "ting": 2160,
      "post /graphql": 2161,
      "-cli": 2162,
      "ables": 2163,
      "basic": 2164,
      "-http": 2165,
      "\\\\u0046": 2166,
      " [<!": 2167,
      "the ": 2168,
      "post /api/v1/message": 2169,
      "action=": 2170,
      "aud": 2171,
      "go-http": 2172,
      "go-http-cli": 2173,
      "ud": 2174,
      "0x6d0x6c": 2175,
      "http/": 2176,
      "de ": 2177,
      "variables": 2178,
      "6a": 2179,
      "95": 2180,
      "post /api/v1/products/": 2181,
      "post /api/v1/comment": 2182,
      ";&#83;&#84": 2183,
      "post /api/v1/products/bulk": 2184,
      "4c": 2185,
      "/1.": 2186,
      "en (": 2187,
      "file=\"": 2188,
      "windows nt 6.3": 2189,
      "windows nt 6.1": 2190,
      "okhttp/": 2191,
      "\\u0068\\u0074": 2192,
      "ciou": 2193,
      ":8080": 2194,
      "gister": 2195,
      "ios": 2196,
      "filter=": 2197,
      " [crlf] location: redirect=": 2198,
      "t=url=": 2199,
      "post /api/v1/review": 2200,
      "col": 2201,
      ";&#99;&#114;&#105": 2202,
      "bles": 2203,
      "case when (": 2204,
      "_file": 2205,
      ";&#99;&#114;&#105;&#112": 2206,
      "post /api/v1/auth/register": 2207,
      "0x660x6f0x6f": 2208,
      ";&#118;&#105": 2209,
      "renc": 2210,
      ",-h*": 2211,
      "7*": 2212,
      "))) ": 2213,
      "&#69;&#78": 2214,
      "\": true": 2215,
      "get /api/v1/orders": 2216,
      "post /api/v1/payment": 2217,
      ":/**/": 2218,
      "post /v2/": 2219,
      ";&#101;&#99": 2220,
      "%255cu0065": 2221,
      "product_id\": \"": 2222,
      ".example.com [crlf]  [crlf] ": 2223,
      "post /v2/orders": 2224,
      "insta": 2225,
      "\", \"active": 2226,
      "filter\": {\"": 2227,
      "\": true}}\n": 2228,
      "\", \"active\": true}}\n": 2229,
      "=url=": 2230,
      "ave": 2231,
      "get ": 2232,
      "0x450x4e": 2233,
      "invo": 2234,
      ") then ": 2235,
      "%252f%252a": 2236,
      "post /api/v1/auth/logou": 2237,
      "text": 2238,
      "post /api/v1/webhook": 2239,
      "post /api/v1/auth/refresh": 2240,
      "post /api/v1/auth/login": 2241,
      "search/": 2242,
      "0x730x74": 2243,
      "(\"": 2244,
      ".t": 2245,
      "liciou": 2246,
      "get /rest/v1/": 2247,
      "\\u0073\\u0074": 2248,
      "bb": 2249,
      ".0 [crlf] accept: text/plain, */* [crlf] accept-language: ": 2250,
      "post /api/v1/export": 2251,
      "maliciou": 2252,
      "get /search?q=c": 2253,
      "ling": 2254,
      "get /api/v2/search/": 2255,
      "text\": \"": 2256,
      "metadata": 2257,
      ".example.com [crlf] user-agent: mozilla/5.0 (x11; linux aarch64; rv:": 2258,
      "0x6f0x6f0x74": 2259,
      "7d": 2260,
      "axios": 2261,
      "invoic": 2262,
      "/change": 2263,
      ".example.com [crlf] user-agent: mozilla/5.0 (windows nt 10.0; wow64; rv:": 2264,
      "post /api/v1/auth/password/change": 2265,
      ".example.com [crlf] user-agent: mozilla/5.0 (windows nt 6.3; win64; x64; rv:": 2266,
      "get /api/v1/invoic": 2267,
      "post /api/v1/addresse": 2268,
      "verif": 2269,
      "params": 2270,
      "file:///": 2271,
      "&#101;&#116;&#99;/&#112": 2272,
      "td": 2273,
      "get /api/v1/payment": 2274,
      "/**/'": 2275,
      "query=": 2276,
      "&#114;&#111;&#111": 2277,
      ".0x630x6f0x6d": 2278,
      "%2520system": 2279,
      "post /api/v1/auth/verif": 2280,
      "0x530x54": 2281,
      ";&#69;&#77": 2282,
      "y-email": 2283,
      "post /api/v1/auth/verify-email": 2284,
      ";&#76": 2285,
      "post /api/v1/cart/item": 2286,
      "post /api/v1/tag": 2287,
      "%253a%2520": 2288,
      "&from=2023-01-01": 2289,
      "setting": 2290,
      "permi": 2291,
      "permission": 2292,
      "51": 2293,
      "dd": 2294,
      ".example.com [crlf] user-agent: mozilla/5.0 (windows nt 6.1; win64; x64; rv:": 2295,
      "0x650x63": 2296,
      "0%": 2297,
      "is": 2298,
      ";&#116;&#101": 2299,
      "\\u0074\\u0070": 2300,
      "fa": 2301,
      ".0 [crlf] accept: */* [crlf] accept-language: ": 2302,
      "limit\": ": 2303,
      "get /api/v3/": 2304,
      "audit": 2305,
      "(case when (": 2306,
      "4e": 2307,
      "ric": 2308,
      "{'": 2309,
      "\", \"limit\": ": 2310,
      "post /api/v1/users/": 2311,
      "request\": {\"": 2312,
      "0x660x690x6c0x65": 2313,
      "params\": {\"": 2314,
      "?from=20": 2315,
      "met": 2316,
      ";&#101;&#108": 2317,
      ")+char(": 2318,
      "mp": 2319,
      "val": 2320,
      "0x650x76": 2321,
      "data\": {\"": 2322,
      "&to=2025-0": 2323,
      "\\u006d\\u006c": 2324,
      "83;&#89": 2325,
      "(1)>": 2326,
      "post /api/v1/users/bulk": 2327,
      "amou": 2328,
      "org": 2329,
      ";&#79;&#67": 2330,
      "\\u0065\\u0074\\u0063/": 2331,
      "3,": 2332,
      "_at": 2333,
      "ack": 2334,
      "example.com [crlf] user-agent: ": 2335,
      "0x720x6f0x6f0x74": 2336,
      " http/1.1 [crlf] host: api.example.io [crlf] user-agent: ": 2337,
      "&to=2023-12-31": 2338,
      "sha": 2339,
      "&#65;": 2340,
      ";&#83;&#84;&#69;&#77": 2341,
      "run": 2342,
      "0x70://": 2343,
      "count(": 2344,
      "/bulk": 2345,
      "&from=2024-01-01": 2346,
      "post /api/v1/orders/bulk": 2347,
      "/3.2": 2348,
      "malicious": 2349,
      ".\", \"": 2350,
      ".example.com [crlf] user-agent: mozilla/5.0 (x11; linux x86_64; rv:": 2351,
      "count(*": 2352,
      "&#111": 2353,
      "plan\": \"": 2354,
      "&#102;&#111;&#111;": 2355,
      ";&#99;&#114;&#105;&#112;&#116;": 2356,
      "83;&#89;&#83;&#84;&#69;&#77": 2357,
      "/item": 2358,
      "get /api/v2/catalog": 2359,
      "get /api/v2/catalog/item": 2360,
      "_users ": 2361,
      "cy": 2362,
      "vert": 2363,
      "post /api/v1/roles": 2364,
      "&#109": 2365,
      "..\\..\\": 2366,
      ",}": 2367,
      "wget": 2368,
      "%252a%252f": 2369,
      "post /api/v1/auth/password/reset http/1.1 [crlf] host: ": 2370,
      "_users t": 2371,
      "email=": 2372,
      "?to=20": 2373,
      "tim": 2374,
      "5000000": 2375,
      "%72": 2376,
      "&#101;&#116;&#99;/&#112;&#97;&#115;&#115;&#119;&#100;": 2377,
      "metric": 2378,
      "get /api/v1/profile": 2379,
      "%2f%2a": 2380,
      ">&xxe;</": 2381,
      ".example.com [crlf] user-agent: mozilla/5.0 (x11; ubuntu; linux x86_64; rv:": 2382,
      "\\u0045\\u004e": 2383,
      ";&#84;&#73": 2384,
      "post /api/v1/auth/logout http/1.1 [crlf] host: ": 2385,
      "shadow": 2386,
      "ror": 2387,
      "convert": 2388,
      "http%253a%252f%252f": 2389,
      "0x52": 2390,
      "\\\\u0049": 2391,
      "rol": 2392,
      "%20system": 2393,
      " or ": 2394,
      "96": 2395,
      "\\u006b": 2396,
      "comm": 2397,
      "; win64; x64": 2398,
      "%253b%2526%252310": 2399,
      "0x540x49": 2400,
      "3a": 2401,
      "for ": 2402,
      "&#120;6": 2403,
      "&#69;&#78;&#84;&#73": 2404,
      "cus": 2405,
      ";&#103;": 2406,
      "%2524%257bifs": 2407,
      "; _ga=ga1.1.": 2408,
      "&#69;&#78;&#84;&#73;&#84;&#89": 2409,
      "fal": 2410,
      "%200x": 2411,
      ") as ": 2412,
      "%250d%250a": 2413,
      "bear": 2414,
      "&#68;&#79;&#67": 2415,
      "%253e%253c": 2416,
      ";&#80;&#69": 2417,
      "; win64; x64) applewebkit/537.36 (khtml, like gecko) chrome/": 2418,
      "&event_type=": 2419,
      "http%3a%2f%2f": 2420,
      "0x730x68": 2421,
      "load_file": 2422,
      "4,": 2423,
      "4b": 2424,
      "ib": 2425,
      " [crlf] authorization: bear": 2426,
      "description\": \"": 2427,
      " [crlf] authorization: bearer": 2428,
      "le ": 2429,
      "\\&#110;": 2430,
      "&#102;&#105;&#108;&#101;": 2431,
      ";&#111;&#114": 2432,
      "et\": \"": 2433,
      "%3a%20": 2434,
      "false": 2435,
      "&#68;&#79;&#67;&#84;&#89": 2436,
      "%25250a": 2437,
      ";&#97;&#100": 2438,
      "\\u006c\\u006f": 2439,
      "&#68;&#79;&#67;&#84;&#89;&#80;&#69": 2440,
      "%255cu0074": 2441,
      "p@": 2442,
      "cro": 2443,
      "cle": 2444,
      "token\": \"": 2445,
      "3d": 2446,
      " http/1.1 [crlf] host: redirect=": 2447,
      "&#118": 2448,
      "0x6c0x6f": 2449,
      "/review": 2450,
      "compu": 2451,
      "windows nt 10.0; wow": 2452,
      "/ban": 2453,
      "=re": 2454,
      "\\u0072\\u006f\\u006f": 2455,
      "&from=2024-0": 2456,
      " \"": 2457,
      "cc": 2458,
      "\\u0053\\u0054": 2459,
      "count(*) ": 2460,
      ";&#97;&#108": 2461,
      "0x590x530x54": 2462,
      " [crlf] user-agent: mozilla/5.0 (windows nt 10.0; win64; x64) applewebkit/537.36 (khtml, like gecko) chrome/": 2463,
      "\\u0072\\u006f\\u006f\\u0074": 2464,
      "&#120;&#109": 2465,
      "&#114;&#111;&#111;&#116;": 2466,
      "tar": 2467,
      "self": 2468,
      "&#105;&#110": 2469,
      " [crlf] user-agent: mozilla/5.0 (macintosh; intel mac os x 10_15_7": 2470,
      "0x590x530x540x450x4": 2471,
      "%252522": 2472,
      "0x540x490x540x59": 2473,
      "/**/system": 2474,
      "0x450x4e0x540x490x540x59": 2475,
      "&to=2024-12-31": 2476,
      "ate": 2477,
      "..%2": 2478,
      "%2527%2529": 2479,
      "get /api/v1/reports/file=": 2480,
      "\\u0068\\u0074\\u0074\\u0070": 2481,
      ") and (": 2482,
      "%253c%2521entity": 2483,
      "%2525252f": 2484,
      "6b": 2485,
      "=/": 2486,
      "s?from=20": 2487,
      "%2524%257bifs%257d": 2488,
      "7b": 2489,
      "post /api/v1/product": 2490,
      "zip, ": 2491,
      "summ": 2492,
      "{% ": 2493,
      "\": \"20": 2494,
      "\\\\u0075": 2495,
      ";select ": 2496,
      ")||chr(113": 2497,
      " [crlf] content-disposition: form-data; name=\"file\"; filename=\"path=": 2498,
      "0x4f0x43": 2499,
      "%7c": 2500,
      "strong>": 2501,
      "&&": 2502,
      "92.0.": 2503,
      "you ": 2504,
      "tac": 2505,
      "\\u0072\\u0069": 2506,
      "hel": 2507,
      "encode": 2508,
      "%253d%2522": 2509,
      "%2a%2f": 2510,
      " system": 2511,
      "&#104;&#116;&#116;&#112;://": 2512,
      "\\u0053\\u0059": 2513,
      "info": 2514,
      "der": 2515,
      "%2520%252f": 2516,
      "0x720x65": 2517,
      "0x650x740x63/0x700x610x730x730x770x64": 2518,
      "\\u0048": 2519,
      "urlencoded": 2520,
      "msg='": 2521,
      "\\u0063\\u006f\\u006d": 2522,
      "ite": 2523,
      "ping": 2524,
      "use": 2525,
      "\\u0054\\u0049": 2526,
      " [crlf] authorization: basic": 2527,
      "7.0.0.1": 2528,
      "evil.com/": 2529,
      "bil": 2530,
      "%3e%3c": 2531,
      "<!doctype": 2532,
      "&#97;": 2533,
      "order=": 2534,
      "0x500x45": 2535,
      "\\u0053\\u0054\\u0045\\u004": 2536,
      "\\u0053\\u0059\\u0053\\u0054\\u0045\\u004": 2537,
      "-form-": 2538,
      "crea": 2539,
      "www-form-": 2540,
      "\\u006c\\u0065": 2541,
      "x-www-form-": 2542,
      "x-www-form-urlencoded": 2543,
      "%68": 2544,
      "\\u0066\\u0069\\u006c\\u0065": 2545,
      ";&#97;&#100;": 2546,
      "elt(": 2547,
      ")||char(": 2548,
      "nl-nl [crlf] connection: keep-alive [crlf] content-type: application/json [crlf]  [crlf] {\"": 2549,
      "451": 2550,
      "convert.": 2551,
      "%20%25": 2552,
      "template=\"": 2553,
      "0x440x4f0x43": 2554,
      "\\u004f\\u0043": 2555,
      ".tx": 2556,
      " union all select ": 2557,
      "01": 2558,
      "_price": 2559,
      "get /api/v1/search?": 2560,
      ";&#82": 2561,
      "0x540x590x500x45": 2562,
      "69.254.1": 2563,
      "=(select ": 2564,
      "ag": 2565,
      "%2520%2525": 2566,
      "path=\"'": 2567,
      "ru-ru [crlf] connection: close [crlf] content-type: application/json [crlf]  [crlf] {\"": 2568,
      "0x440x4f0x430x540x590x500x45": 2569,
      "\\0x786": 2570,
      "4a": 2571,
      "5a": 2572,
      "al ": 2573,
      "s as t": 2574,
      "%25252e": 2575,
      "bug": 2576,
      "base64_": 2577,
      ">\\n": 2578,
      "s/1": 2579,
      "\\u0065\\u0076": 2580,
      "%27%29": 2581,
      "%65%6": 2582,
      "%3c%21entity": 2583,
      "\\u0045\\u004e\\u0054\\u0049": 2584,
      "\\u0045\\u004e\\u0054\\u0049\\u0054\\u0059": 2585,
      "%5cu0065": 2586,
      "\\0x750065": 2587,
      "%7d%7d": 2588,
      "\\u0050\\u0045": 2589,
      "ind": 2590,
      "\\u0044\\u004f\\u0043": 2591,
      "base64-": 2592,
      "\\u0054\\u0059\\u0050\\u0045": 2593,
      "subject\": \"": 2594,
      "$(": 2595,
      "%70": 2596,
      "\\u0078\\u006d\\u006c": 2597,
      "%257d%257d": 2598,
      ": no": 2599,
      "s?sort=": 2600,
      "\\u0044\\u004f\\u0043\\u0054\\u0059\\u0050\\u0045": 2601,
      "%25255c": 2602,
      "0x640x65": 2603,
      "\\u0076\\u0065\\u0072": 2604,
      "bf": 2605,
      "%25250d": 2606,
      ";&#111;&#117": 2607,
      "low": 2608,
      "-cache": 2609,
      ": no-cache": 2610,
      "billing": 2611,
      "%253c%2521doctype": 2612,
      ";&#118;&#105;&#108;": 2613,
      ";-": 2614,
      "br": 2615,
      "ron": 2616,
      "role": 2617,
      "123": 2618,
      " http/1.1 [crlf] host: staging.example.com [crlf] user-agent: ": 2619,
      " http/1.1 [crlf] host: backend.example.com [crlf] user-agent: ": 2620,
      " http/1.1 [crlf] host: app.example.com [crlf] user-agent: ": 2621,
      "blog": 2622,
      "feat": 2623,
      "stock": 2624,
      "lar": 2625,
      "%2528%2527": 2626,
      "nl-nl [crlf] connection: close [crlf] content-type: application/json [crlf]  [crlf] {\"": 2627,
      "0x780x6d0x6c": 2628,
      ".j": 2629,
      "s?to=20": 2630,
      ";&#108;&#101;&#114;&#116;": 2631,
      "83;&#89;&#83;&#84;&#69;&#77; ": 2632,
      "0x47": 2633,
      "tacker": 2634,
      "0x530x590x530x540x450x4": 2635,
      "get /api/v1/messages/file=": 2636,
      "69.254": 2637,
      "\\u0052": 2638,
      ";&#68": 2639,
      "inform": 2640,
      " http/1.1 [crlf] host: api.example.io [crlf] user-agent: mozilla/5.0 (macintosh; intel mac os x 14_4": 2641,
      "0x610x6c0x650x720x74": 2642,
      "\\\\u0046\\": 2643,
      "\\u0065\\u0074\\u0063/\\u0070\\u0061\\u0073\\u0073\\u0077\\u0064": 2644,
      "ner": 2645,
      "users?page=": 2646,
      " http/1.1 [crlf] host: api.example.io [crlf] user-agent: mozilla/5.0 (macintosh; intel mac os x 12_7": 2647,
      "..%252f..%252f": 2648,
      "&rating=": 2649,
      "get /api/v1/comment": 2650,
      "&#101;&#110": 2651,
      "7*7": 2652,
      " http/1.1 [crlf] host: api.example.io [crlf] user-agent: mozilla/5.0 (macintosh; intel mac os x 13_6": 2653,
      "content": 2654,
      "92.0.451": 2655,
      "69.254.169.254": 2656,
      "92.0.4515.1": 2657,
      "put": 2658,
      "; &#83;&#89;&#83;&#84;&#69;&#77; ": 2659,
      "23-07-01": 2660,
      "\\\\u0049\\\\u0046\\": 2661,
      "0r": 2662,
      "::": 2663,
      "debug": 2664,
      "=\"1.0\" ": 2665,
      "all_users t": 2666,
      "720": 2667,
      "cont": 2668,
      "teme": 2669,
      "java": 2670,
      "attacker": 2671,
      " http/1.1 [crlf] host: www.example.com [crlf] user-agent: ": 2672,
      "computeme": 2673,
      "ez": 2674,
      "o ": 2675,
      "computemetadata": 2676,
      " % ": 2677,
      "d '": 2678,
      ";&#101;&#110": 2679,
      ";&#97;&#109": 2680,
      "%3d%22": 2681,
      "get /api/v1/categories/": 2682,
      "03": 2683,
      "112": 2684,
      "-->": 2685,
      "0x717": 2686,
      "img": 2687,
      "').": 2688,
      "1 else ": 2689,
      "200": 2690,
      "uri": 2691,
      "work": 2692,
      "0x48": 2693,
      ";&#111;&#100": 2694,
      " http/1.1 [crlf] host: api.example.com [crlf] user-agent: ": 2695,
      "windows": 2696,
      "login": 2697,
      "%00%00": 2698,
      "__.__": 2699,
      "%00x61": 2700,
      "variables\": \"": 2701,
      "your": 2702,
      "%25200x": 2703,
      " with": 2704,
      "amount": 2705,
      "0 ": 2706,
      "= ": 2707,
      "cp": 2708,
      "&#101;&#118;&#105;&#108;": 2709,
      "get /api/v1/files/file=": 2710,
      "information": 2711,
      "\\u0047": 2712,
      "(select '": 2713,
      "..%2f..%2f": 2714,
      "'/**/": 2715,
      "700": 2716,
      "%2565": 2717,
      " http/1.1 [crlf] host: example.com [crlf] user-agent: ": 2718,
      "' >": 2719,
      "title=": 2720,
      "25-01-01": 2721,
      "..%252": 2722,
      "path=\"": 2723,
      "users?limit=": 2724,
      "%253c%2521doctype%2520": 2725,
      "9-30": 2726,
      "%252565": 2727,
      " http/1.1 [crlf] host: dev.example.com [crlf] user-agent: mozilla/5.0 (macintosh; intel mac os x 10_15_7": 2728,
      "ru-ru [crlf] connection: keep-alive [crlf] content-type: application/json [crlf]  [crlf] {\"": 2729,
      "convert.base64-": 2730,
      "/>\n": 2731,
      "\\\\u00750065": 2732,
      "%28%27": 2733,
      "-10": 2734,
      "bd": 2735,
      "%20x46": 2736,
      "cat": 2737,
      "input": 2738,
      "s http/1.1": 2739,
      "%255c%2522": 2740,
      "${\\\\u0049\\\\u0046\\": 2741,
      "0x700x68": 2742,
      "${\\\\u0049\\\\u0046\\\\u0053}": 2743,
      "ef": 2744,
      "gro": 2745,
      " http/1.1 [crlf] host: api.example.io [crlf] user-agent: mozilla/5.0 (macintosh; intel mac os x 10_15_7": 2746,
      "%2fetc%2fpasswd": 2747,
      " http/1.1 [crlf] host: dev.example.com [crlf] user-agent: ": 2748,
      "\\u0070\\u0068": 2749,
      "status\": \"": 2750,
      "%3c%21doctype": 2751,
      "&#120;&#120;&#101;": 2752,
      "&#68;&#79;&#67;&#84;&#89;&#80;&#69; ": 2753,
      "=regi": 2754,
      "'='": 2755,
      "siz": 2756,
      "\\u0070\\u0074": 2757,
      "vide": 2758,
      "s http/1.1 [crlf] host: api.example.io [crlf] user-agent: mozilla/5.0 (": 2759,
      "%255cu0061": 2760,
      "%5cu0074": 2761,
      "&#115;&#104": 2762,
      "x11; ubuntu; linux x86_64) applewebkit/537.36 (khtml, like gecko) chrome/1": 2763,
      "access_token": 2764,
      "cf": 2765,
      "text/html": 2766,
      "-8\"?><!": 2767,
      "%2527%2520": 2768,
      "get /search?q=c/": 2769,
      "1`": 2770,
      "\\u0055": 2771,
      ".com/": 2772,
      "&#66;": 2773,
      "ent ": 2774,
      "&#117": 2775,
      "&#101;&#120": 2776,
      "eval": 2777,
      "(1)</": 2778,
      "clo": 2779,
      "5c0": 2780,
      "ja-jp [crlf] connection: close [crlf] \n": 2781,
      "&#112;&#104": 2782,
      "%69%6": 2783,
      "linux; android 13; pixel 7": 2784,
      "%25281": 2785,
      "devic": 2786,
      "\\0x78": 2787,
      "aw": 2788,
      "dur": 2789,
      "dated": 2790,
      "aarch64) applewebkit/537.36 (khtml, like gecko) chrome/1": 2791,
      "windows nt 6.1; win64; x64) applewebkit/537.36 (khtml, like gecko) chrome/1": 2792,
      "&#69;&#78;&#84;&#73;&#84;&#89; ": 2793,
      "city": 2794,
      "jo": 2795,
      "payload": 2796,
      "rm": 2797,
      "subject=": 2798,
      "%252f%252a%252a%252f": 2799,
      "%2f%2a%2a%2f": 2800,
      "password=": 2801,
      "23-06-30": 2802,
      "\\r\\n": 2803,
      "\\0x750074": 2804,
      "0x680x740x740x70://": 2805,
      "_price=": 2806,
      "div": 2807,
      "-10-01": 2808,
      "n ": 2809,
      "ol": 2810,
      "get /api/v1/notifications/": 2811,
      "from du": 2812,
      "4.": 2813,
      "\\\\u0066": 2814,
      "%27%20": 2815,
      "docum": 2816,
      "0x680x6f": 2817,
      "&order=": 2818,
      ".org": 2819,
      "x61": 2820,
      ";&#101;&#116;": 2821,
      "\\u006f\\u0063": 2822,
      "%255cu006f": 2823,
      "veri": 2824,
      "25-04-01": 2825,
      "ard": 2826,
      "\", \"coupon\": \"": 2827,
      "linux; android 12; sm-a525f": 2828,
      "updated": 2829,
      " http/1.1 [crlf] user-agent: mozilla/5.0 (": 2830,
      "png": 2831,
      "refresh": 2832,
      "/**/[": 2833,
      "\\u0065\\u0078": 2834,
      "0x650x760x690x6c": 2835,
      "documen": 2836,
      "&action=": 2837,
      " [ ": 2838,
      "edit": 2839,
      "convert.base64-encode": 2840,
      " \\u0053\\u0059\\u0053\\u0054\\u0045\\u004": 2841,
      ".\\u0063\\u006f\\u006d": 2842,
      "`1`": 2843,
      "b1": 2844,
      "sv": 2845,
      "24-10-01": 2846,
      " [crlf] content-type: application/x-www-form-urlencoded": 2847,
      "=host=\"": 2848,
      "0x620x61": 2849,
      "verified": 2850,
      "%256": 2851,
      "as sys": 2852,
      "/**//": 2853,
      "users as sys": 2854,
      ";.": 2855,
      "ni": 2856,
      "%281": 2857,
      "%2520%255b": 2858,
      "oner": 2859,
      "linux; android 14; pixel 8": 2860,
      "with": 2861,
      "0x6f0x75": 2862,
      "\\\\&#120;": 2863,
      "0x610x6d": 2864,
      "content=": 2865,
      "5,": 2866,
      "a7": 2867,
      "text/plain": 2868,
      "\\u0072\\u0065": 2869,
      "windows nt 6.3; win64; x64) applewebkit/537.36 (khtml, like gecko) chrome/1": 2870,
      "%3c%21doctype%20": 2871,
      "\\u0063\\u0072\\u0069": 2872,
      ">&1": 2873,
      "linux; android 13; sm-g991b": 2874,
      "%73": 2875,
      "5d": 2876,
      "&page=path=": 2877,
      "put /": 2878,
      "4444": 2879,
      "\\0x750060x66": 2880,
      "role\": \"": 2881,
      "| ": 2882,
      "%0\\u0061": 2883,
      "eting": 2884,
      "refresh_token": 2885,
      "onerror": 2886,
      "\\u0063\\u0072\\u0069\\u0070\\u0074": 2887,
      "=alert": 2888,
      "ace": 2889,
      ";&#116; ": 2890,
      "}}{{": 2891,
      ";&#104;&#111": 2892,
      "greeting": 2893,
      "value": 2894,
      "3b": 2895,
      ";]><": 2896,
      ", http/1.1 [crlf] host: localhost [crlf] accept: */* [crlf] \n": 2897,
      "get /search?q=cal": 2898,
      "\\u0073\\u0065": 2899,
      "foo>&xxe;</": 2900,
      " [crlf] connection: close [crlf] content-type: application/xml [crlf]  [crlf] \"```": 2901,
      "foo>&xxe;</foo": 2902,
      "ly ": 2903,
      " http/1.1 [crlf] host: api.example.com [crlf] user-agent: mozilla/5.0 (macintosh; intel mac os x 13_6": 2904,
      "video": 2905,
      "500x78": 2906,
      "bles ": 2907,
      "8e": 2908,
      "_cy": 2909,
      "0x6f0x72": 2910,
      " http/1.1 [crlf] host: dev.example.com [crlf] user-agent: mozilla/5.0 (macintosh; intel mac os x 13_6": 2911,
      "http://evil.com/": 2912,
      "publish": 2913,
      "\">]><foo>&xxe;</foo": 2914,
      "billing_cy": 2915,
      "\">]><foo>&xxe;</foo>\n": 2916,
      "billing_cycle": 2917,
      ".</": 2918,
      "0xml": 2919,
      "zh-cn [crlf] connection: keep-alive [crlf] \n": 2920,
      "%3b%26%2310": 2921,
      "%00x64": 2922,
      ".&#99;&#111;&#109;/": 2923,
      "/>": 2924,
      "get /search?q=s": 2925,
      "encoded_": 2926,
      "64-": 2927,
      " http/1.1 [crlf] host: app.example.com [crlf] user-agent: mozilla/5.0 (macintosh; intel mac os x 14_4": 2928,
      "<!entity/**/": 2929,
      ";=": 2930,
      "exfil": 2931,
      "get /api/v1/product": 2932,
      "\", \"password\": \"": 2933,
      "%253b%253c%252f": 2934,
      "%253e\n": 2935,
      "&#97;&#108;&#101;&#114;&#116;": 2936,
      "\\\\u0065\\\\u0072": 2937,
      "\\u0070\\u0068\\u0070": 2938,
      "yz": 2939,
      "0x630x65": 2940,
      "es-es [crlf] connection: keep-alive [crlf] \n": 2941,
      "%7b%7b": 2942,
      "but ": 2943,
      "cb": 2944,
      ") and ": 2945,
      "0x6a": 2946,
      "..%": 2947,
      "dalert": 2948,
      "new_": 2949,
      "\\u0044\\u004f\\u0043\\u0054\\u0059\\u0050\\u0045 ": 2950,
      " http/1.1 [crlf] host: api.example.com [crlf] user-agent: mozilla/5.0 (macintosh; intel mac os x 10_15_7": 2951,
      "%253e%2526": 2952,
      "%253b%2526%2523116": 2953,
      "()}}": 2954,
      "internal/": 2955,
      "'\",": 2956,
      ". http/1.1 [crlf] host: localhost [crlf] accept: */* [crlf] \n": 2957,
      "%0&#100;": 2958,
      " http/1.1 [crlf] host: staging.example.com [crlf] user-agent: mozilla/5.0 (macintosh; intel mac os x 10_15_7": 2959,
      "pt-br [crlf] connection: keep-alive [crlf] \n": 2960,
      "ko-kr [crlf] connection: close [crlf] \n": 2961,
      "control": 2962,
      "%25281%2529": 2963,
      "a9": 2964,
      "sleep(5": 2965,
      "wer": 2966,
      "ash": 2967,
      "=(select count(*) ": 2968,
      "dir": 2969,
      " http/1.1 [crlf] host: backend.example.com [crlf] user-agent: mozilla/5.0 (macintosh; intel mac os x 10_15_7": 2970,
      "de-de [crlf] connection: keep-alive [crlf] \n": 2971,
      "71,": 2972,
      " http/1.1 [crlf] host: example.com [crlf] user-agent: mozilla/5.0 (macintosh; intel mac os x 13_6": 2973,
      "feature": 2974,
      "&read=": 2975,
      "-control": 2976,
      "dro": 2977,
      "leng": 2978,
      ";(": 2979,
      "serv": 2980,
      "%25253e": 2981,
      " http/1.1 [crlf] host: example.com [crlf] user-agent: mozilla/5.0 (macintosh; intel mac os x 14_4": 2982,
      "ject": 2983,
      " 0x530x590x530x540x450x4": 2984,
      "5b": 2985,
      "\\/": 2986,
      "cur": 2987,
      "tmp": 2988,
      "star": 2989,
      "created": 2990,
      "bles as t": 2991,
      "rdb": 2992,
      "sty": 2993,
      "yw": 2994,
      "msg=\"": 2995,
      "\\u0065\\u0076\\u0069\\u006c": 2996,
      ".5": 2997,
      "%257c": 2998,
      "fr-fr [crlf] connection: keep-alive [crlf] \n": 2999,
      "d \"": 3000,
      "rdb$": 3001,
      "me.": 3002,
      "pdf": 3003,
      ";&#73;&#": 3004,
      "che": 3005,
      "\", \"product_id\": \"": 3006,
      "%5cu006f": 3007,
      " http/1.1 [crlf] host: www.example.com [crlf] user-agent: mozilla/5.0 (macintosh; intel mac os x 10_15_7": 3008,
      "'}\n": 3009,
      "0x58": 3010,
      "%2520-": 3011,
      "en-us [crlf] connection: close [crlf] \n": 3012,
      "\\u00786\\u006": 3013,
      "ign": 3014,
      ".\"}\n": 3015,
      "meta": 3016,
      "%60%60": 3017,
      "em>": 3018,
      "2%": 3019,
      "fet": 3020,
      "pt-br [crlf] connection: close [crlf] \n": 3021,
      "get ../": 3022,
      "0x650x630x74": 3023,
      "length": 3024,
      "=4": 3025,
      "dec": 3026,
      "s/5": 3027,
      "&#71": 3028,
      " http/1.1 [crlf] host: api.example.com [crlf] user-agent: mozilla/5.0 (macintosh; intel mac os x 14_4": 3029,
      ";&#114;&#99": 3030,
      " http/1.1 [crlf] host: app.example.com [crlf] user-agent: mozilla/5.0 (macintosh; intel mac os x 12_7": 3031,
      "en-us [crlf] connection: keep-alive [crlf] \n": 3032,
      "%281%29": 3033,
      "fetch": 3034,
      "8,": 3035,
      "ir": 3036,
      "0x55": 3037,
      " http/1.1 [crlf] host: backend.example.com [crlf] user-agent: mozilla/5.0 (macintosh; intel mac os x 12_7": 3038,
      "../../../": 3039,
      "0x4d": 3040,
      "\\\\u0076": 3041,
      "\", \"ids\": \"": 3042,
      "message=": 3043,
      "script%3e": 3044,
      "%22%2c%20%22": 3045,
      "bash": 3046,
      " <access_token": 3047,
      ".example.com [crlf]  [crlf] {'": 3048,
      "%2\\u0046": 3049,
      ") where ": 3050,
      " [crlf] connection: close [crlf] cookie: ": 3051,
      "%252fetc%252fpasswd": 3052,
      " http/1.1 [crlf] host: app.example.com [crlf] user-agent: mozilla/5.0 (macintosh; intel mac os x 13_6": 3053,
      "zh-cn [crlf] connection: close [crlf] \n": 3054,
      " http/1.1 [crlf] host: example.com [crlf] user-agent: mozilla/5.0 (macintosh; intel mac os x 12_7": 3055,
      "0x610x740x61": 3056,
      "os.": 3057,
      "table": 3058,
      "..%5c": 3059,
      ";&#108; ": 3060,
      " http/1.1 [crlf] host: www.example.com [crlf] user-agent: mozilla/5.0 (macintosh; intel mac os x 12_7": 3061,
      "fr-fr [crlf] connection: close [crlf] \n": 3062,
      "en-gb [crlf] connection: close [crlf] \n": 3063,
      "msg=\"'": 3064,
      "document.": 3065,
      "ld ": 3066,
      ") end": 3067,
      "%257b%257b": 3068,
      "countr": 3069,
      "return=redirect=": 3070,
      ".txt": 3071,
      "rea": 3072,
      " [crlf] connection: keep-alive [crlf] cookie: ": 3073,
      "es-es [crlf] connection: close [crlf] \n": 3074,
      ";&#69;&#84": 3075,
      "rele": 3076,
      " [crlf] connection: close [crlf] x-forwarded-host: redirect=": 3077,
      "%252527": 3078,
      "iphone; cpu iphone os 16_6 like mac os x": 3079,
      "&#115;&#101;&#108": 3080,
      "get /search?q=c/ ": 3081,
      "put /api/v1/": 3082,
      "domain": 3083,
      "envi": 3084,
      "\\u006f\\u0075": 3085,
      " http/1.1 [crlf] host: dev.example.com [crlf] user-agent: mozilla/5.0 (macintosh; intel mac os x 14_4": 3086,
      "\\u0064\\u0065": 3087,
      "callback=redirect=": 3088,
      "arti": 3089,
      ";&#101; &#83;&#89;&#83;&#84;&#69;&#77; ": 3090,
      ";&#108;&#111": 3091,
      "32.3": 3092,
      "windows nt 10.0; win64; x64) applewebkit/537.36 (khtml, like gecko) chrome/1": 3093,
      " http/1.1 [crlf] host: example.com [crlf] user-agent: mozilla/5.0 (macintosh; intel mac os x 10_15_7": 3094,
      "ko-kr [crlf] connection: keep-alive [crlf] \n": 3095,
      "postmanruntime/7.32.3": 3096,
      "croot": 3097,
      "environ": 3098,
      "c3": 3099,
      "none": 3100,
      "%20%5b": 3101,
      "prox": 3102,
      ";&#108;&#101;": 3103,
      "it-it [crlf] connection: keep-alive [crlf] \n": 3104,
      "en-gb [crlf] connection: keep-alive [crlf] \n": 3105,
      "php://": 3106,
      "instance": 3107,
      "%0&#100;%0": 3108,
      " %": 3109,
      "\\\\u0067": 3110,
      "/**/-": 3111,
      "id=": 3112,
      ";&#115;&#105;&#111;&#110;": 3113,
      " http/1.1 [crlf] host: staging.example.com [crlf] user-agent: mozilla/5.0 (macintosh; intel mac os x 13_6": 3114,
      " http/1.1 [crlf] host: backend.example.com [crlf] user-agent: mozilla/5.0 (macintosh; intel mac os x 13_6": 3115,
      "board": 3116,
      "': '<": 3117,
      "drop": 3118,
      "\": \"host=\\\"": 3119,
      "body\": \"": 3120,
      "index": 3121,
      "5c0%2525": 3122,
      "0x786": 3123,
      "%25253a": 3124,
      "query\": \"host=": 3125,
      "timez": 3126,
      "%25250d%25250a": 3127,
      "timezone": 3128,
      ".net": 3129,
      "p><": 3130,
      "://[": 3131,
      " http/1.1 [crlf] host: staging.example.com [crlf] user-agent: mozilla/5.0 (macintosh; intel mac os x 12_7": 3132,
      "ja-jp [crlf] connection: keep-alive [crlf] \n": 3133,
      "category\": \"": 3134,
      "price\": \"": 3135,
      "billing_cycle\": \"": 3136,
      "\", \"action\": \"": 3137,
      " http/1.1 [crlf] host: www.example.com [crlf] user-agent: mozilla/5.0 (macintosh; intel mac os x 14_4": 3138,
      " http/1.1 [crlf] host: backend.example.com [crlf] user-agent: mozilla/5.0 (macintosh; intel mac os x 14_4": 3139,
      "%c0%af": 3140,
      "6,": 3141,
      "abou": 3142,
      "onload": 3143,
      "%2520xxe": 3144,
      "%6f": 3145,
      "sysusers as sys": 3146,
      "van": 3147,
      "lob": 3148,
      "\\u004d": 3149,
      " http/1.1 [crlf] host: api.example.com [crlf] user-agent: mozilla/5.0 (macintosh; intel mac os x 12_7": 3150,
      "stro": 3151,
      "string": 3152,
      "', 'content": 3153,
      "stock\": \"": 3154,
      "#{": 3155,
      "&#83": 3156,
      "&#115;&#99;&#114;&#105;&#112;&#116;": 3157,
      "windows nt 10.0; wow64) applewebkit/537.36 (khtml, like gecko) chrome/1": 3158,
      "0x440x4f0x430x540x590x500x45 ": 3159,
      ">\",\n": 3160,
      "wel": 3161,
      "\", \"qty\": \"": 3162,
      "\", \"plan\": \"": 3163,
      "activ": 3164,
      "file:///etc/passwd": 3165,
      "%20%2f": 3166,
      "javascript:": 3167,
      "%255cu0073": 3168,
      "%62": 3169,
      " http/1.1 [crlf] host: dev.example.com [crlf] user-agent: mozilla/5.0 (macintosh; intel mac os x 12_7": 3170,
      "0x740x650x6d": 3171,
      "next=": 3172,
      "\\u0058": 3173,
      ".168": 3174,
      "omb": 3175,
      "xml\\n": 3176,
      ";&#116;&#101;&#114": 3177,
      "=\"utf-8": 3178,
      "\\&#117;0065": 3179,
      "&#98;&#97;&#115": 3180,
      ":8080/": 3181,
      "mon": 3182,
      "get /api/v1/users": 3183,
      "\"?><!doctype": 3184,
      ")) as ": 3185,
      "base64_encoded_": 3186,
      "=\"utf-8\"?><!doctype": 3187,
      "ies": 3188,
      "iphone; cpu iphone os 17_4 like mac os x": 3189,
      "ferenc": 3190,
      "=true": 3191,
      "\\'": 3192,
      "focus": 3193,
      "%5cu0073": 3194,
      "%5\\u0043": 3195,
      "script%253e": 3196,
      "&#100;&#97;&#116;&#97": 3197,
      "desc": 3198,
      "wget/1.": 3199,
      "&email=": 3200,
      "\\u004e": 3201,
      "88.1": 3202,
      "0x650x720x73": 3203,
      "21.4": 3204,
      "title': '": 3205,
      "process": 3206,
      "refresh_token\": \"": 3207,
      "xml\\n<!doctype": 3208,
      "wget/1.21.4": 3209,
      "%/**/": 3210,
      "bel": 3211,
      "est": 3212,
      "0x4e": 3213,
      "%2522%253e": 3214,
      "ent/1.1": 3215,
      "456": 3216,
      "curl/7.88.1": 3217,
      "go-http-client/1.1": 3218,
      ") then 1 else ": 3219,
      " [crlf] authorization: basic <": 3220,
      "%2520xxe%2520system": 3221,
      "dr": 3222,
      "%25c0": 3223,
      " [crlf] connection: keep-alive [crlf] content-type: application/xml [crlf]  [crlf] \"```": 3224,
      "%25253c": 3225,
      "theme": 3226,
      ".0x630x6f0x6d/": 3227,
      "4.9": 3228,
      "&#71;&#69;&#84": 3229,
      "tion ": 3230,
      "%255cu0063": 3231,
      "street\": \"": 3232,
      "title\": \"": 3233,
      "&#112;&#104;&#112;": 3234,
      "activity": 3235,
      "op": 3236,
      " http/1.1 [crlf] host: staging.example.com [crlf] user-agent: mozilla/5.0 (macintosh; intel mac os x 14_4": 3237,
      "it-it [crlf] connection: close [crlf] \n": 3238,
      " [crlf] connection: keep-alive [crlf] content-type: application/xml [crlf]  [crlf] <?xml": 3239,
      "0x6c0x6f0x610x64": 3240,
      "%\"": 3241,
      "fd": 3242,
      "106": 3243,
      "here": 3244,
      "0:": 3245,
      "/11": 3246,
      "t/2": 3247,
      "127.0.0.1": 3248,
      "\", \"description\": \"": 3249,
      "%2522%252c%2520%2522": 3250,
      " <access_token> [crlf] host: ": 3251,
      "hi": 3252,
      "k ": 3253,
      "secr": 3254,
      "lig": 3255,
      "1.0%2522": 3256,
      "%25252525": 3257,
      " [crlf] connection: close [crlf] content-type: application/xml [crlf]  [crlf] <?xml": 3258,
      ";&#107;&#105": 3259,
      "okhttp/4.9": 3260,
      "city\": \"": 3261,
      "okhttp/4.9.3": 3262,
      "bin": 3263,
      "tu": 3264,
      "get /api/v1/review": 3265,
      "not ": 3266,
      "get /api/v1/files/path=": 3267,
      "%252e%252e": 3268,
      "color": 3269,
      "file%253a%252f%252f": 3270,
      "get /admin/report": 3271,
      "0x730x650x6c": 3272,
      ".domain": 3273,
      "' where ": 3274,
      "&#110": 3275,
      "%0\\u0064": 3276,
      "0x690x65": 3277,
      "redirect=redirect=": 3278,
      " http/1.1 [crlf] host: www.example.com [crlf] user-agent: mozilla/5.0 (macintosh; intel mac os x 13_6": 3279,
      "zip\": \"": 3280,
      "script>alert": 3281,
      "cloud": 3282,
      "chema": 3283,
      "country\": \"": 3284,
      ";${&#73;&#70;&#83;}": 3285,
      "f0": 3286,
      " [crlf] connection: close [crlf] location: redirect=": 3287,
      "%253b%2526%2523101": 3288,
      ";&#111;&#111;&#107;&#105": 3289,
      "next=redirect=": 3290,
      "\", \"text\": \"": 3291,
      "&#119": 3292,
      " http/1.1 [crlf] host: app.example.com [crlf] user-agent: mozilla/5.0 (macintosh; intel mac os x 10_15_7": 3293,
      "de-de [crlf] connection: close [crlf] \n": 3294,
      "location=redirect=": 3295,
      "\\\\u0075006\\u0066": 3296,
      "0x790x73": 3297,
      "\\u0076\\u0065\\u0072\\u0073": 3298,
      "%252565%2525": 3299,
      ";&#111;&#111;&#107;&#105;&#101;": 3300,
      "8.4": 3301,
      "/1.4": 3302,
      " (select ": 3303,
      "%5cu0061": 3304,
      "select%20": 3305,
      "encoding=\"utf-8\"?><!doctype": 3306,
      "get /v2/search?": 3307,
      "&#120;&#120;&#101; &#83;&#89;&#83;&#84;&#69;&#77; ": 3308,
      "axios/1.4": 3309,
      " from ": 3310,
      "7,": 3311,
      "%2&#70": 3312,
      "version=\"1.0\"?><!": 3313,
      "ruby": 3314,
      "80%": 3315,
      "\\\\u0065\\\\u0074": 3316,
      "version=\"1.0\"?><!doctype": 3317,
      "o http/1.1 [crlf] host: localhost [crlf] accept: */* [crlf] \n": 3318,
      "wa": 3319,
      "ami": 3320,
      ".0.20": 3321,
      "%20-": 3322,
      "%253c%253f": 3323,
      "curl/8.4": 3324,
      "java/11": 3325,
      "%25c0%25": 3326,
      "java/11.0.20": 3327,
      "\\u0063\\u0074": 3328,
      "template=}}{{": 3329,
      "0x6f0x6f0x6b": 3330,
      "s?limit=25": 3331,
      "returnurl=redirect=": 3332,
      ";&#101;&#116;&#97;&#100": 3333,
      "summary": 3334,
      "8b": 3335,
      "_key": 3336,
      "cd": 3337,
      "%25252520": 3338,
      "_schema": 3339,
      ";&#101;&#116;&#97;&#100;&#97;&#116;&#97": 3340,
      " [crlf] user-agent: curl/7.": 3341,
      "70;": 3342,
      "&#103": 3343,
      "ss!": 3344,
      "\\&#117;0074": 3345,
      "igh": 3346,
      "%253f%253e": 3347,
      "p@ss!": 3348,
      "%00x64%00x61": 3349,
      "reason": 3350,
      "get /internal/": 3351,
      "get /search?q=0": 3352,
      "%3e\n": 3353,
      "msg=<": 3354,
      "readshe": 3355,
      "filter/": 3356,
      "=\"1.0\"": 3357,
      "s?limit=100": 3358,
      ".31.0": 3359,
      "spreadshe": 3360,
      "preferenc": 3361,
      "python-requests/2.31.0": 3362,
      "0x6f0x6f0x6b0x690x65": 3363,
      "get /internal/health": 3364,
      "2>&1": 3365,
      "ent/2": 3366,
      " [crlf] connection: keep-alive [crlf] location: redirect=": 3367,
      "%3b%3c%2f": 3368,
      "0x780x74": 3369,
      "0&#120;65": 3370,
      "get /api/v1/analytics/summary": 3371,
      "go-http-client/2": 3372,
      " [crlf] user-agent: mozilla/5.0 (windows nt 10.0; win64; x64) applewebkit/537.36 (khtml, like gecko) chrome/92.0.4515.1": 3373,
      "get /search?q=calle ": 3374,
      "ath": 3375,
      "vel": 3376,
      "get /api/v1/roles": 3377,
      "union ": 3378,
      "?limit=25": 3379,
      "%3b%26%23116": 3380,
      "s http/1.1 [crlf] host: example.com [crlf] user-agent: mozilla/5.0 (macintosh; intel mac os x ": 3381,
      "duration": 3382,
      "style": 3383,
      ".00": 3384,
      "asc": 3385,
      "\\\"]": 3386,
      "4.12": 3387,
      "popu": 3388,
      "okhttp/4.12": 3389,
      "php://filter/": 3390,
      "&password=": 3391,
      "=3": 3392,
      "lated": 3393,
      " mode": 3394,
      ";&#101;/": 3395,
      "0x450x54": 3396,
      "get /api/v1/messages/path=": 3397,
      "?limit=50": 3398,
      ".5,-h*": 3399,
      "import": 3400,
      "%5c%22": 3401,
      "&to=2024-09-30": 3402,
      "api.example.io [crlf] user-agent: mozilla/5.0 (": 3403,
      ";&#116;&#101;&#109": 3404,
      "%40": 3405,
      "(\\\"": 3406,
      "<root": 3407,
      "=0": 3408,
      "n http/1.1 [crlf] host: localhost [crlf] accept: */* [crlf] \n": 3409,
      "%2\\u0065": 3410,
      "%20xxe": 3411,
      "%252\\u0046": 3412,
      "mode": 3413,
      "get /api/v1/notification": 3414,
      "get /api/v1/event": 3415,
      "%2527%252c": 3416,
      "\\u0068\\u0074\\u0074\\u0070://": 3417,
      "relevan": 3418,
      "ruby/3.2": 3419,
      ";&#101;&#120": 3420,
      ";&#97;&#99": 3421,
      ";&#99;&#111;&#100": 3422,
      "||(select '": 3423,
      "t http/1.1 [crlf] host: localhost [crlf] accept: */* [crlf] \n": 3424,
      ";&#121;&#115": 3425,
      "path=\"' ": 3426,
      "update": 3427,
      "92.168": 3428,
      "?limit=10": 3429,
      ";&#97;&#116;&#105;&#111;&#110;": 3430,
      "popular": 3431,
      ".28": 3432,
      "0x50": 3433,
      "red": 3434,
      " [crlf] connection: keep-alive [crlf] x-forwarded-host: redirect=": 3435,
      "\\u0073\\u0063\\u0072\\u0069\\u0070\\u0074": 3436,
      "xxe/**/system": 3437,
      "xxe%253b%253c%252f": 3438,
      "help": 3439,
      "ry": 3440,
      "username": 3441,
      "0x6f0x77": 3442,
      ";&#105;&#99": 3443,
      "\\\\u00750074": 3444,
      "ibm": 3445,
      "&#120;&#109;&#108;": 3446,
      "/image": 3447,
      "/preferenc": 3448,
      "get /api/v1/webhook": 3449,
      "cia": 3450,
      ".dtd": 3451,
      "get /api/v3/analytic": 3452,
      "7a": 3453,
      "b0": 3454,
      "0x690x64": 3455,
      "deflate": 3456,
      "_schema.": 3457,
      "] [": 3458,
      "on ": 3459,
      "%2520x46": 3460,
      "rator": 3461,
      "targe": 3462,
      "light": 3463,
      "(chr(": 3464,
      "cance": 3465,
      "tal": 3466,
      "get /api/v1/audit": 3467,
      "get /admin/audit": 3468,
      "&to=2025-06-30": 3469,
      "get /api/v1/profile/preferenc": 3470,
      "%253d%25221.0%2522": 3471,
      "0x790x730x740x650x6d": 3472,
      "relevance": 3473,
      "(5000000": 3474,
      "@s": 3475,
      "d9": 3476,
      " http/1.1 [crlf] host: url=": 3477,
      "\\u006f\\u0072": 3478,
      "%255cu0069": 3479,
      "%00\" [crlf] content-type: application/octet-stream [crlf]  [crlf]  [crlf] ------webkitformboundary": 3480,
      "get /admin/log": 3481,
      ") applewebkit/605.1.15 (khtml, like gecko) version/17.0 safari/605.1.15 [crlf] accept: application/json [crlf] accept-language: ": 3482,
      "\\u0065\\u0072\\u0074": 3483,
      "%253b%2526%2523111": 3484,
      "&to=2024-06-30": 3485,
      "python-requests/2.28": 3486,
      "python-requests/2.28.2": 3487,
      "s+": 3488,
      "%255cu0072": 3489,
      "%22%3e": 3490,
      "%2526%252": 3491,
      "\\\\u00750061": 3492,
      "&from=2025-01-01": 3493,
      "etc/shadow": 3494,
      ">&#": 3495,
      "ce ": 3496,
      "dash": 3497,
      "gzip, ": 3498,
      "ysta": 3499,
      "get /api/v1/config": 3500,
      "0x650x78": 3501,
      ";&#111;&#119": 3502,
      "ight": 3503,
      "post /admin/users": 3504,
      "&to=2025-03-31": 3505,
      "gzip, deflate": 3506,
      ".8": 3507,
      "0x6c0x65": 3508,
      "\\0x750061": 3509,
      "0x6d0x61": 3510,
      "get /api/v2/config": 3511,
      "?limit=20": 3512,
      "%20xxe%20system": 3513,
      "get /api/v1/profile/preferences?": 3514,
      "%2526%25236": 3515,
      "5f": 3516,
      "?q=": 3517,
      "?sort=": 3518,
      "my": 3519,
      "s%20": 3520,
      "get /metric": 3521,
      "\\\\u0077": 3522,
      "\\u007874": 3523,
      "\\u0063\\u0065": 3524,
      "s?limit=10": 3525,
      "[\\\"": 3526,
      "get /health": 3527,
      "%5cu0069": 3528,
      "6.8": 3529,
      "system32": 3530,
      "position": 3531,
      "content\": \"": 3532,
      ".systa": 3533,
      "/1.6.8": 3534,
      "axios/1.6.8": 3535,
      "information_schema.": 3536,
      "ibm.systa": 3537,
      "get /healthz": 3538,
      "ibm.systables as t": 3539,
      "level": 3540,
      "ice ": 3541,
      "get /api/v1/analytics/event": 3542,
      "%2565%25": 3543,
      "size": 3544,
      "0x620x610x730x65": 3545,
      "popularity": 3546,
      "get /api/v1/session": 3547,
      "\\\\u0062": 3548,
      "file%3a%2f%2f": 3549,
      ";&#101;&#114;&#115;&#105;&#111;&#110;": 3550,
      "%2560%2560": 3551,
      "get /rest/v1/catalog": 3552,
      "', 'content': '<": 3553,
      "-0x43": 3554,
      "bl": 3555,
      "get /api/v1/addresse": 3556,
      "get /api/v1/devic": 3557,
      "%3e%26": 3558,
      "parent": 3559,
      "public": 3560,
      "\\u0078\\u0078\\u0065 \\u0053\\u0059\\u0053\\u0054\\u0045\\u004": 3561,
      "none\n": 3562,
      "dashboard": 3563,
      "-&#67": 3564,
      "high": 3565,
      "label": 3566,
      "an ": 3567,
      "&to=2024-03-31": 3568,
      "command": 3569,
      "&in": 3570,
      "0x57": 3571,
      "%250": 3572,
      "; http/1.1 [crlf] host: ": 3573,
      "compa": 3574,
      "100x": 3575,
      "%3c%3f": 3576,
      "&to=2023-06-30": 3577,
      "&from=2023-07-01": 3578,
      "0x750x6e": 3579,
      ") applewebkit/605.1.15 (khtml, like gecko) version/16.6 safari/605.1.15 [crlf] accept: application/json, text/plain, */* [crlf] accept-language: ": 3580,
      "s?limit=50": 3581,
      "svg": 3582,
      "currenc": 3583,
      "moderator": 3584,
      "37.0": 3585,
      "\\\\u0045": 3586,
      "rank": 3587,
      "cat(": 3588,
      "get /api/v1/label": 3589,
      "..%255c": 3590,
      "als": 3591,
      "evil.dtd": 3592,
      "get /search?q=1'||(select '": 3593,
      "%255d%253e%253c": 3594,
      "170": 3595,
      ";&#72": 3596,
      "concat(": 3597,
      ";&#88": 3598,
      "%3f%3e": 3599,
      " http/1.1 [crlf] host: api.example.io [crlf] user-agent: mozilla/5.0 (x11; linux i686": 3600,
      "postmanruntime/7.37.0": 3601,
      "&from=2024-07-01": 3602,
      "\\u0076\\u0065\\u0072\\u0073\\u0069\\u006f\\u006e": 3603,
      "9,": 3604,
      "0x690x63": 3605,
      "max": 3606,
      ") applewebkit/605.1.15 (khtml, like gecko) version/17.2 safari/605.1.15 [crlf] accept: application/json, text/plain, */* [crlf] accept-language: ": 3607,
      ";&#121;&#115;&#116;&#101;&#109": 3608,
      "0,": 3609,
      "?status=": 3610,
      "fla": 3611,
      "gener": 3612,
      "0x630%": 3613,
      "0x6c0x6c": 3614,
      "1.0%22": 3615,
      "(select (case when (": 3616,
      "{{ ": 3617,
      "buil": 3618,
      "get /actuator/metric": 3619,
      " [crlf] authorization: bearer <access_token> [crlf] host: ": 3620,
      "&#118;&#101;&#114;&#115;&#105;&#111;&#110;": 3621,
      "%253c%2521entity%2520xxe%2520system": 3622,
      "features?": 3623,
      "s.": 3624,
      "httpie": 3625,
      "get /api/v1/tag": 3626,
      "\\u0069\\u0065": 3627,
      "template='": 3628,
      "00x7860x66": 3629,
      "get /admin/setting": 3630,
      ") applewebkit/605.1.15 (khtml, like gecko) version/17.2 safari/605.1.15 [crlf] accept: application/json, text/javascript, */*; q=0.01 [crlf] accept-language: ": 3631,
      "\\\"'<": 3632,
      "of ": 3633,
      "\\u0065\\u006e\\u0063\\u006f": 3634,
      "/3.2.2": 3635,
      "index.php": 3636,
      "%0\\u0064%0\\u0061": 3637,
      "httpie/3.2.2": 3638,
      "2d": 3639,
      "get /api/v1/features?": 3640,
      "240": 3641,
      "\\\\'": 3642,
      "%255cu0070": 3643,
      "%255cu006e": 3644,
      "union%20": 3645,
      "get /admin/dashboard": 3646,
      "\\u0049\\u0046": 3647,
      "\\u006f\\u006f\\u006b": 3648,
      "get /actuator/health": 3649,
      "get /actuator/info": 3650,
      "&#101;&#110;&#99;&#111;&#100": 3651,
      " [crlf] authorization: basic <base64_encoded_": 3652,
      "=path=": 3653,
      "%20x65": 3654,
      "%2&#70;": 3655,
      "users?sort=": 3656,
      ") applewebkit/605.1.15 (khtml, like gecko) version/16.6 safari/605.1.15 [crlf] accept: application/json;charset=utf-8 [crlf] accept-language: ": 3657,
      ";&#105;&#110;": 3658,
      "level=": 3659,
      "7e": 3660,
      "]/": 3661,
      "bc": 3662,
      "sco": 3663,
      "compati": 3664,
      "1d": 3665,
      "2c": 3666,
      "ber": 3667,
      "gl": 3668,
      "%2&#101;": 3669,
      "get /api/v1/permission": 3670,
      "get /admin/analytic": 3671,
      "%2528%2529": 3672,
      "0x760x650x720x73": 3673,
      "0x780x780x65 0x530x590x530x540x450x4": 3674,
      "&#111;&#110": 3675,
      "0x470x450x54": 3676,
      "editor": 3677,
      "`,": 3678,
      "a0": 3679,
      "\\u0057": 3680,
      "head": 3681,
      "%5cu0072": 3682,
      "?limit=100": 3683,
      "\\u0075\\u006e": 3684,
      "\\u006f\\u006f\\u006b\\u0069\\u0065": 3685,
      "compatible": 3686,
      " to ": 3687,
      "/resource": 3688,
      "who": 3689,
      "acon": 3690,
      "version%253d%25221.0%2522": 3691,
      "lear": 3692,
      ") applewebkit/605.1.15 (khtml, like gecko) version/17.2 safari/605.1.15 [crlf] accept: application/json;charset=utf-8 [crlf] accept-language: ": 3693,
      ")||chr(122": 3694,
      ",null,null,null,null": 3695,
      "\\u0078\\u0078\\u0065;</": 3696,
      "%253c%253fxml": 3697,
      "* ": 3698,
      ">:80/": 3699,
      "bar": 3700,
      "d!": 3701,
      "down": 3702,
      "\\0x750073": 3703,
      ";&#116;/": 3704,
      ") applewebkit/605.1.15 (khtml, like gecko) version/17.4 safari/605.1.15 [crlf] accept: application/json, text/plain, */* [crlf] accept-language: ": 3705,
      ".example.com [crlf] user-agent: mozilla/5.0 (ipad; cpu os 16_6 like mac os x) applewebkit/605.1.15 (khtml, like gecko) version/17.0 mobile/15e148 safari/604.1": 3706,
      "get /api/v1/categories": 3707,
      "0%&#97": 3708,
      "' http/1.1 [crlf] host: localhost [crlf] accept: */* [crlf] \n": 3709,
      "a&": 3710,
      "hex": 3711,
      ";&#101;&#116;&#99": 3712,
      "host=host=": 3713,
      "\\\\u0061\\\\u0074": 3714,
      "&#120;&#120;&#101;;</": 3715,
      "&#72": 3716,
      "cha": 3717,
      "get /api/v1/export": 3718,
      "%27%2c": 3719,
      "\\\\u0069\\\\u006e": 3720,
      "(r": 3721,
      "cla": 3722,
      "modi": 3723,
      "get /read": 3724,
      "--\",": 3725,
      "77.0": 3726,
      "&from=2024-10-01": 3727,
      "reason\": \"": 3728,
      "get /readyz": 3729,
      "s http/1.1 [crlf] host: localhost [crlf] accept: */* [crlf] \n": 3730,
      "&#99;0%&#97": 3731,
      "0x630%0x61": 3732,
      "-data": 3733,
      "=8": 3734,
      "ve ": 3735,
      "\",/**/\"": 3736,
      "get /search?q=1')": 3737,
      "get /api/v1/reports/path=": 3738,
      "0x780x780x65;</": 3739,
      "0x730x630x720x690x700x74>": 3740,
      "&#102;&#105;&#108;&#101;:///": 3741,
      "&from=2024-04-01": 3742,
      "376": 3743,
      "s=": 3744,
      "\\u00630%": 3745,
      "ress": 3746,
      "too": 3747,
      "files/": 3748,
      ") applewebkit/605.1.15 (khtml, like gecko) version/17.0 safari/605.1.15 [crlf] accept: application/json;charset=utf-8 [crlf] accept-language: ": 3749,
      "\\\\u0063\\\\u006f": 3750,
      "%25252f%25252f": 3751,
      "\\u0045\\u004e\\u0054\\u0049\\u0054\\u0059 ": 3752,
      "compatible; ": 3753,
      "\"]": 3754,
      "$'": 3755,
      "my ": 3756,
      "%2574": 3757,
      "/*xss": 3758,
      ";&#87": 3759,
      "acontent-": 3760,
      "modified": 3761,
      "/*xss*/": 3762,
      "-ip": 3763,
      "/permission": 3764,
      "1f": 3765,
      "3f": 3766,
      ";&#73": 3767,
      "la ": 3768,
      " [crlf] accept-encoding": 3769,
      "fr-fr,fr;q=0.7 [crlf] connection: close [crlf] \n": 3770,
      " [crlf] accept-encoding: ": 3771,
      "ben": 3772,
      "have": 3773,
      "<!0x450x4e0x540x490x540x59": 3774,
      ";&#104;": 3775,
      "%2e%2e": 3776,
      "....//....//": 3777,
      "\\u006c\\u006f\\u0061\\u0064": 3778,
      "%253e%2526xxe%253b%253c%252f": 3779,
      "ning": 3780,
      "lid": 3781,
      "enda": 3782,
      "get /api/v1/version": 3783,
      "0x740x650x72": 3784,
      "xxe system": 3785,
      "abc": 3786,
      ".example.com [crlf] user-agent: mozilla/5.0 (iphone; cpu iphone os 17_4 like mac os x) applewebkit/605.1.15 (khtml, like gecko) version/16.6 mobile/15e148 safari/604.1": 3787,
      "query=host=": 3788,
      "%3d%221.0%22": 3789,
      "-\\u0043": 3790,
      "8f": 3791,
      "flate": 3792,
      "%2525c0%2525": 3793,
      "%255cu006c": 3794,
      "\\&#117;0061": 3795,
      "en-us,en;q=0.8 [crlf] connection: close [crlf] \n": 3796,
      "pri": 3797,
      ";&#101;&#114;": 3798,
      ") applewebkit/605.1.15 (khtml, like gecko) version/17.4 safari/605.1.15 [crlf] accept: application/json, text/javascript, */*; q=0.01 [crlf] accept-language: ": 3799,
      "),null": 3800,
      "cache": 3801,
      "d\", \"": 3802,
      "accou": 3803,
      "%252574": 3804,
      "out": 3805,
      "%2520version%253d%25221.0%2522": 3806,
      "//<": 3807,
      "total": 3808,
      "\\u0065\\u006d": 3809,
      "&#106": 3810,
      "))-- http/1.1 [crlf] host: localhost [crlf] accept: */* [crlf] \n": 3811,
      "viewer": 3812,
      "\\u0062\\u0061\\u0073": 3813,
      "new_password\": \"": 3814,
      "&name=": 3815,
      "-//": 3816,
      "750": 3817,
      "dc": 3818,
      "&#85": 3819,
      "0x730x790x730x740x650x6d": 3820,
      "ko-kr,ko;q=0.5 [crlf] connection: keep-alive [crlf] \n": 3821,
      "%28%29": 3822,
      ") applewebkit/605.1.15 (khtml, like gecko) version/16.6 safari/605.1.15 [crlf] accept: application/json, text/javascript, */*; q=0.01 [crlf] accept-language: ": 3823,
      ") applewebkit/605.1.15 (khtml, like gecko) version/17.0 safari/605.1.15 [crlf] accept: application/json, text/plain, */* [crlf] accept-language: ": 3824,
      ") applewebkit/605.1.15 (khtml, like gecko) version/17.0 safari/605.1.15 [crlf] accept: application/json, text/javascript, */*; q=0.01 [crlf] accept-language: ": 3825,
      ";&#80;": 3826,
      "\\u0061\\u006c\\u0065\\u0072\\u0074": 3827,
      "&#117;&#110": 3828,
      "&#115;&#101;&#108;&#101;&#99": 3829,
      "duration\": \"": 3830,
      "%253c%253fxml%2520version%253d%25221.0%2522": 3831,
      "\\u00630%\\u0061": 3832,
      "']": 3833,
      "8a": 3834,
      "9c": 3835,
      "_a": 3836,
      "67a": 3837,
      "&#114;&#101": 3838,
      "\\u0061\\u0074\\u0069\\u006f\\u006e": 3839,
      ".example.com [crlf] user-agent: mozilla/5.0 (iphone; cpu iphone os 17_4 like mac os x) applewebkit/605.1.15 (khtml, like gecko) version/17.2 mobile/15e148 safari/604.1": 3840,
      "\\&#117;006&#102;": 3841,
      "%253f%253e%253c%2521doctype%2520": 3842,
      ";&#101;&#116;&#99;": 3843,
      "jsession": 3844,
      "var": 3845,
      "; /": 3846,
      "%252&#70": 3847,
      "get /api/v1/subscription": 3848,
      "251.0": 3849,
      "\\0x750069": 3850,
      "en-us,en;q=0.8 [crlf] connection: keep-alive [crlf] \n": 3851,
      "fr-fr,fr;q=0.8 [crlf] connection: close [crlf] \n": 3852,
      "%3b%26%23101": 3853,
      "get /search?q=1'+": 3854,
      ";&#101;&#116;-&#67": 3855,
      "9f": 3856,
      ":44": 3857,
      "xp": 3858,
      " [crlf] cache": 3859,
      " like '": 3860,
      "unc": 3861,
      "&#99;&#111;&#110": 3862,
      "it-it,it;q=0.9 [crlf] connection: keep-alive [crlf] \n": 3863,
      "&from=2025-04-01": 3864,
      ".&#99;&#111;&#109;": 3865,
      "-control: no-cache": 3866,
      ";&#101;&#116;-&#67;&#111;&#111;&#107;&#105;&#101;": 3867,
      " [crlf] cache-control: no-cache": 3868,
      "vin": 3869,
      "cas": 3870,
      "version=\"1.0\"": 3871,
      "medi": 3872,
      ") applewebkit/605.1.15 (khtml, like gecko) version/16.6 safari/605.1.15 [crlf] accept: application/json [crlf] accept-language: ": 3873,
      ".example.com [crlf] user-agent: mozilla/5.0 (ipad; cpu os 16_6 like mac os x) applewebkit/605.1.15 (khtml, like gecko) version/16.6 mobile/15e148 safari/604.1": 3874,
      "&#69;&#78;&#84;&#73;&#84;&#89; &#120;&#120;&#101; &#83;&#89;&#83;&#84;&#69;&#77; ": 3875,
      "251.0376": 3876,
      "&filter=": 3877,
      "/orders": 3878,
      "if(": 3879,
      "new ": 3880,
      ".example.com [crlf] user-agent: mozilla/5.0 (ipad; cpu os 16_6 like mac os x) applewebkit/605.1.15 (khtml, like gecko) version/17.2 mobile/15e148 safari/604.1": 3881,
      "whoami": 3882,
      "' like '": 3883,
      "/activity": 3884,
      "04": 3885,
      "lle": 3886,
      "products?page=": 3887,
      "%6d": 3888,
      "${\\u0049\\u0046": 3889,
      "zh-cn,zh;q=0.9 [crlf] connection: keep-alive [crlf] \n": 3890,
      "pt-br,pt;q=0.9 [crlf] connection: close [crlf] \n": 3891,
      "lates": 3892,
      "[\"'": 3893,
      "0x650x6e0x630x6f": 3894,
      "login=": 3895,
      "greeting=": 3896,
      "${\\u0049\\u0046\\u0053}": 3897,
      ")# http/1.1 [crlf] host: localhost [crlf] accept: */* [crlf] \n": 3898,
      "/etc/passwd": 3899,
      "7c": 3900,
      "e http/1.1 [crlf] host: localhost [crlf] accept: */* [crlf] \n": 3901,
      "%5cu006e": 3902,
      "))),": 3903,
      "0x650x74-0x43": 3904,
      "s?limit=20": 3905,
      ".example.com [crlf] user-agent: mozilla/5.0 (iphone; cpu iphone os 16_6 like mac os x) applewebkit/605.1.15 (khtml, like gecko) version/17.0 mobile/15e148 safari/604.1": 3906,
      "0x700x680x70": 3907,
      "from dual": 3908,
      "meta-data": 3909,
      "score": 3910,
      " and (": 3911,
      "_set": 3912,
      "v1": 3913,
      "clu": 3914,
      "get /api/v1/users?": 3915,
      "it-it,it;q=0.5 [crlf] connection: close [crlf] \n": 3916,
      "varian": 3917,
      "0x660x690x6c0x65:///": 3918,
      ".example.com [crlf]  [crlf] {'title': '": 3919,
      "parent_id\": \"": 3920,
      ")'": 3921,
      "ia": 3922,
      "\": \"#": 3923,
      "format": 3924,
      "her": 3925,
      "\\u0064\\u0061\\u0074": 3926,
      "%253b%2526%252397": 3927,
      "ja-jp,ja;q=0.7 [crlf] connection: keep-alive [crlf] \n": 3928,
      ">&&#120;&#120;&#101;;</": 3929,
      "/related": 3930,
      ") applewebkit/605.1.15 (khtml, like gecko) version/17.4 safari/605.1.15 [crlf] accept: application/json [crlf] accept-language: ": 3931,
      "goo": 3932,
      ".example.com [crlf] user-agent: mozilla/5.0 (iphone; cpu iphone os 16_6 like mac os x) applewebkit/605.1.15 (khtml, like gecko) version/17.4 mobile/15e148 safari/604.1": 3933,
      "ality": 3934,
      "' > ": 3935,
      "document=": 3936,
      "&#98;&#97;&#115;&#101;": 3937,
      "color\": \"#": 3938,
      "0x650x74-0x430x6f0x6f0x6b0x690x65": 3939,
      "=7": 3940,
      "\\t": 3941,
      "000": 3942,
      ";&#66": 3943,
      "ket": 3944,
      "this ": 3945,
      "\", \"role\": \"": 3946,
      "\", \"street\": \"": 3947,
      "ales": 3948,
      "\\u0061\\u006d": 3949,
      "\\u0073\\u0068": 3950,
      "\", [crlf] \n": 3951,
      "pt-br,pt;q=0.5 [crlf] connection: keep-alive [crlf] \n": 3952,
      ".example.com [crlf] user-agent: mozilla/5.0 (iphone; cpu iphone os 17_4 like mac os x) applewebkit/605.1.15 (khtml, like gecko) version/17.4 mobile/15e148 safari/604.1": 3953,
      ":password": 3954,
      "e0": 3955,
      "wh": 3956,
      ", *": 3957,
      "0x630x6d": 3958,
      "database": 3959,
      "%5cu0063": 3960,
      "0x640x610x740x61": 3961,
      "er ": 3962,
      "quality": 3963,
      "\\\",\\\"": 3964,
      "document.domain": 3965,
      "attacker.com": 3966,
      "/session": 3967,
      "=5": 3968,
      "kon": 3969,
      "60\\u00786": 3970,
      "type\": \"": 3971,
      "%255cu0064": 3972,
      "3.5": 3973,
      "en-gb,en;q=0.7 [crlf] connection: keep-alive [crlf] \n": 3974,
      "select%2520": 3975,
      "\\0x750060x63": 3976,
      "username:password": 3977,
      "1;": 3978,
      "8c": 3979,
      "tables": 3980,
      "%252569": 3981,
      ";&#97;&#110": 3982,
      "\\\\u00750069": 3983,
      "%2526%2523120": 3984,
      "%67": 3985,
      "0&#120;74": 3986,
      "tienda": 3987,
      "&#100;&#101": 3988,
      ".example.com [crlf] user-agent: mozilla/5.0 (iphone; cpu iphone os 17_4 like mac os x) applewebkit/605.1.15 (khtml, like gecko) version/17.0 mobile/15e148 safari/604.1": 3989,
      ".example.com [crlf] user-agent: mozilla/5.0 (iphone; cpu iphone os 16_6 like mac os x) applewebkit/605.1.15 (khtml, like gecko) version/16.6 mobile/15e148 safari/604.1": 3990,
      "%5d%3e%3c": 3991,
      "windows nt 6.3; win64; x64; rv:": 3992,
      "timezone=": 3993,
      "%3c%3fxml": 3994,
      "jsessionid=": 3995,
      "\"><": 3996,
      "'\", http/1.1 [crlf] host: ": 3997,
      "eat": 3998,
      "khtml": 3999,
      "modo": 4000,
      "text=": 4001,
      "ans": 4002,
      "ter ": 4003,
      "msg=\\\"": 4004,
      "\\u0066\\u0069\\u006c\\u0065:///": 4005,
      ".jsp": 4006,
      "group": 4007,
      " foo": 4008,
      "5.8": 4009,
      "x) ": 4010,
      "x-g": 4011,
      "zu": 4012,
      ";&#122": 4013,
      " [crlf] accept-language: en": 4014,
      "version%3d%221.0%22": 4015,
      " http/1.1 [crlf] host: api.example.com [crlf] user-agent: mozilla/5.0 (x11; linux i686": 4016,
      "10.0.5481.177 safari/537.36 [crlf] accept: application/json, text/javascript, */*; q=0.01 [crlf] accept-language: ": 4017,
      "it-it,it;q=0.7 [crlf] connection: close [crlf] \n": 4018,
      "de-de,de;q=0.5 [crlf] connection: close [crlf] \n": 4019,
      "\\\\u0074\\\\u0070": 4020,
      "&limit=100&page=": 4021,
      "0x610x740x690x6f0x6e": 4022,
      ".example.com [crlf] user-agent: mozilla/5.0 (iphone; cpu iphone os 16_6 like mac os x) applewebkit/605.1.15 (khtml, like gecko) version/17.2 mobile/15e148 safari/604.1": 4023,
      "msg='><": 4024,
      " else ": 4025,
      ") [crlf] ": 4026,
      "csrf=": 4027,
      "x-de": 4028,
      "t: utf-8": 4029,
      ", utf-8": 4030,
      ", gzip, deflate": 4031,
      " (like gecko": 4032,
      " [crlf] host: localhost": 4033,
      " [crlf] accept-charse": 4034,
      "lang=": 4035,
      " sh": 4036,
      "; linux) ": 4037,
      ";q=0.5, *": 4038,
      ";q=0.5 [crlf] accept-language: en": 4039,
      "ma: no-cache": 4040,
      "zh-cn,zh;q=0.9 [crlf] connection: close [crlf] \n": 4041,
      "0x530x650x74-0x430x6f0x6f0x6b0x690x65": 4042,
      "en-gb,en;q=0.8 [crlf] connection: close [crlf] \n": 4043,
      "de-de,de;q=0.9 [crlf] connection: close [crlf] \n": 4044,
      "ko-kr,ko;q=0.8 [crlf] connection: close [crlf] \n": 4045,
      "ko-kr,ko;q=0.7 [crlf] connection: close [crlf] \n": 4046,
      "prag": 4047,
      "queror/": 4048,
      ") applewebkit/605.1.15 (khtml, like gecko) version/17.4 safari/605.1.15 [crlf] accept: application/json;charset=utf-8 [crlf] accept-language: ": 4049,
      " http/1.1 http/1.1 [crlf] user-agent: mozilla/5.0 (": 4050,
      "\\\\u0069\\\\u0070": 4051,
      "<!entity ": 4052,
      "set-cookie:": 4053,
      "/3.5.8": 4054,
      "zip, x-de": 4055,
      "computemetadata/v1/": 4056,
      "compatible; kon": 4057,
      " [crlf] accept-encoding: x-g": 4058,
      "flate, gzip, deflate": 4059,
      "3.5; linux) ": 4060,
      "tienda1/": 4061,
      "khtml/3.5.8": 4062,
      ") [crlf] prag": 4063,
      "t: utf-8, utf-8": 4064,
      " (like gecko) [crlf] prag": 4065,
      " [crlf] accept-charset: utf-8, utf-8": 4066,
      ";q=0.5, *;q=0.5 [crlf] accept-language: en": 4067,
      "ma: no-cache [crlf] cache-control: no-cache": 4068,
      "queror/3.5; linux) ": 4069,
      " http/1.1 http/1.1 [crlf] user-agent: mozilla/5.0 (compatible; kon": 4070,
      "zip, x-deflate, gzip, deflate": 4071,
      " [crlf] accept-encoding: x-gzip, x-deflate, gzip, deflate": 4072,
      "khtml/3.5.8 (like gecko) [crlf] prag": 4073,
      " [crlf] accept-charset: utf-8, utf-8;q=0.5, *;q=0.5 [crlf] accept-language: en": 4074,
      "queror/3.5; linux) khtml/3.5.8 (like gecko) [crlf] prag": 4075,
      " http/1.1 http/1.1 [crlf] user-agent: mozilla/5.0 (compatible; konqueror/3.5; linux) khtml/3.5.8 (like gecko) [crlf] prag": 4076,
      " [crlf] accept-encoding: x-gzip, x-deflate, gzip, deflate [crlf] accept-charset: utf-8, utf-8;q=0.5, *;q=0.5 [crlf] accept-language: en": 4077,
      " http/1.1 http/1.1 [crlf] user-agent: mozilla/5.0 (compatible; konqueror/3.5; linux) khtml/3.5.8 (like gecko) [crlf] pragma: no-cache [crlf] cache-control: no-cache": 4078,
      " [crlf] accept-encoding: x-gzip, x-deflate, gzip, deflate [crlf] accept-charset: utf-8, utf-8;q=0.5, *;q=0.5 [crlf] accept-language: en [crlf] host: localhost": 4079,
      "2a": 4080,
      ";'>": 4081,
      "?action=": 4082,
      "?debug": 4083,
      "%2\\u0066": 4084,
      ".0.44": 4085,
      "get /api/v1/products?": 4086,
      "%25250": 4087,
      "top": 4088,
      "url\": \"url=": 4089,
      "ja-jp,ja;q=0.7 [crlf] connection: close [crlf] \n": 4090,
      "xxe%3b%3c%2f": 4091,
      "_stock": 4092,
      "0x760x650x720x730x690x6f0x6e": 4093,
      "_at http/1.1 [crlf] host: ": 4094,
      "?debug=1": 4095,
      "($": 4096,
      "520": 4097,
      "7f": 4098,
      "cion": 4099,
      "h http/1.1 [crlf] host: localhost [crlf] accept: */* [crlf] \n": 4100,
      "%252561": 4101,
      "\\u0074\\u0065\\u0072": 4102,
      "%2550x43": 4103,
      "\"> %": 4104,
      ";&#111;&#99;&#97;&#116;&#105;&#111;&#110;": 4105,
      " http/1.1 [crlf] host: example.com [crlf] user-agent: mozilla/5.0 (x11; linux i686": 4106,
      "\\u006c\\u0065\\u0063\\u0074": 4107,
      "69.254.169.254/": 4108,
      ":443/": 4109,
      "&b1": 4110,
      "ld": 4111,
      "o.": 4112,
      "ssw": 4113,
      "soc": 4114,
      "ye": 4115,
      "%20x66": 4116,
      "\", \"price\": \"": 4117,
      ";&#97;&#114": 4118,
      "%6c": 4119,
      "22.0.6261.128 safari/537.36 [crlf] accept: application/json, text/javascript, */*; q=0.01 [crlf] accept-language: ": 4120,
      "fr-fr,fr;q=0.9 [crlf] connection: keep-alive [crlf] \n": 4121,
      "fr-fr,fr;q=0.5 [crlf] connection: keep-alive [crlf] \n": 4122,
      "pt-br,pt;q=0.7 [crlf] connection: close [crlf] \n": 4123,
      "pt-br,pt;q=0.8 [crlf] connection: keep-alive [crlf] \n": 4124,
      "es-es,es;q=0.9 [crlf] connection: keep-alive [crlf] \n": 4125,
      "&limit=50&page=": 4126,
      "guest": 4127,
      "get /api/v1/payments/": 4128,
      "\\u0078\\u006d\\u006c ": 4129,
      " your": 4130,
      "&login=": 4131,
      "nomb": 4132,
      "; -": 4133,
      ") http/1.1 [crlf] host: localhost [crlf] accept: */* [crlf] \n": 4134,
      "ill ": 4135,
      "%5cu006c": 4136,
      " [crlf] cookie: jsessionid=": 4137,
      "theme=": 4138,
      "0x730x650x6c0x650x630x74": 4139,
      "get /api/v1/features?filter=": 4140,
      "nombre": 4141,
      "glob": 4142,
      "tom": 4143,
      "yn": 4144,
      "apel": 4145,
      "%252&#70;": 4146,
      "102": 4147,
      ";&#85": 4148,
      "\\\\\\\\u00786": 4149,
      "0x700x72": 4150,
      "zh-cn,zh;q=0.8 [crlf] connection: close [crlf] \n": 4151,
      "zh-cn,zh;q=0.5 [crlf] connection: close [crlf] \n": 4152,
      "pt-br,pt;q=0.8 [crlf] connection: close [crlf] \n": 4153,
      "de-de,de;q=0.8 [crlf] connection: close [crlf] \n": 4154,
      "&#97;&#100": 4155,
      "network": 4156,
      "6a71,": 4157,
      "0x717a7": 4158,
      "0x717170": 4159,
      "%0&#100;%0&#97": 4160,
      "0x717a767a": 4161,
      "0x7171706a71,": 4162,
      ")*": 4163,
      "cor": 4164,
      "api_key": 4165,
      "it-it,it;q=0.8 [crlf] connection: close [crlf] \n": 4166,
      "ja-jp,ja;q=0.8 [crlf] connection: close [crlf] \n": 4167,
      "es-es,es;q=0.7 [crlf] connection: close [crlf] \n": 4168,
      "tr0": 4169,
      "posts http/1.1": 4170,
      "\\\\u0068\\\\u0074": 4171,
      "get /api/v1/search?q=": 4172,
      "&#115;&#99;&#114;&#105;&#112;&#116;>": 4173,
      "union select ": 4174,
      "ssw0r": 4175,
      "/self": 4176,
      "dri": 4177,
      "ode": 4178,
      "0x720x6f": 4179,
      "ub4d": 4180,
      " like \"": 4181,
      "docs/": 4182,
      "zh-cn,zh;q=0.7 [crlf] connection: keep-alive [crlf] \n": 4183,
      "\\\\u0061\\\\u006c": 4184,
      "p@ssw0r": 4185,
      "&#120;&#109;&#108; ": 4186,
      "%3c%21entity%20xxe%20system": 4187,
      ".\\u0063\\u006f\\u006d/": 4188,
      "\\u0073\\u0065\\u006c\\u0065\\u0063\\u0074": 4189,
      "download": 4190,
      "\\u0045\\u004e\\u0054\\u0049\\u0054\\u0059 \\u0078\\u0078\\u0065 \\u0053\\u0059\\u0053\\u0054\\u0045\\u004": 4191,
      "tr0ub4d": 4192,
      "p@ssw0rd!": 4193,
      "tr0ub4d0r": 4194,
      "\" like \"": 4195,
      "9d": 4196,
      "=%": 4197,
      "=&#": 4198,
      "&#76": 4199,
      "ad=": 4200,
      " http/1.1 [crlf] host: staging.example.com [crlf] user-agent: mozilla/5.0 (x11; linux i686": 4201,
      "0x700x6c": 4202,
      "18.0.5993.88 safari/537.36 [crlf] accept: application/json, text/plain, */* [crlf] accept-language: ": 4203,
      "zh-cn,zh;q=0.5 [crlf] connection: keep-alive [crlf] \n": 4204,
      "en-gb,en;q=0.9 [crlf] connection: close [crlf] \n": 4205,
      "es-es,es;q=0.8 [crlf] connection: close [crlf] \n": 4206,
      ") applewebkit/605.1.15 (khtml, like gecko) version/17.2 safari/605.1.15 [crlf] accept: application/json [crlf] accept-language: ": 4207,
      "latest": 4208,
      "description=": 4209,
      "month": 4210,
      "'))": 4211,
      "cli": 4212,
      "thor": 4213,
      "\", \"stock\": \"": 4214,
      "0x740x68": 4215,
      ";&#112;&#97;&#115;&#115;&#119;&#100;": 4216,
      "get /search?q=1' ": 4217,
      "0x700x73": 4218,
      "&sort=relevance": 4219,
      "ja-jp,ja;q=0.9 [crlf] connection: close [crlf] \n": 4220,
      "ciud": 4221,
      "%3b%26%23111": 4222,
      "&order=desc": 4223,
      "convert.base64-encode/resource": 4224,
      ";&#108;&#111;&#97;&#100;": 4225,
      "spreadsheet": 4226,
      "&#120;&#109;&#108; &#118;&#101;&#114;&#115;&#105;&#111;&#110;": 4227,
      "&min": 4228,
      "\\\", ": 4229,
      "&#80": 4230,
      ";&#x": 4231,
      "/**/foo": 4232,
      "dev/": 4233,
      "put=": 4234,
      "\\0x750063": 4235,
      "10.0.5481.177 safari/537.36 [crlf] accept: application/json [crlf] accept-language: ": 4236,
      "14.0.5735.199 safari/537.36 [crlf] accept: application/json [crlf] accept-language: ": 4237,
      "24.0.6367.82 safari/537.36 [crlf] accept: application/json, text/plain, */* [crlf] accept-language: ": 4238,
      "18.0.5993.88 safari/537.36 [crlf] accept: application/json;charset=utf-8 [crlf] accept-language: ": 4239,
      "en-us,en;q=0.7 [crlf] connection: close [crlf] \n": 4240,
      "en-us,en;q=0.9 [crlf] connection: close [crlf] \n": 4241,
      "aarch64; rv:": 4242,
      "bob": 4243,
      "00x7874": 4244,
      "></p>": 4245,
      "resource=file=": 4246,
      " [crlf] user-agent: mozilla/5.0 (macintosh; intel mac os x 10_15_7) applewebkit/605.1.15 (khtml, like gecko) version/1": 4247,
      "<!entity/**/xxe/**/system": 4248,
      "\\u0062\\u0061\\u0073\\u0065": 4249,
      "/self/": 4250,
      "3p@ss!": 4251,
      "dni": 4252,
      "s3c": 4253,
      "appro": 4254,
      "inclu": 4255,
      "114": 4256,
      "ur3p@ss!": 4257,
      "%26%2": 4258,
      "10.0.5481.177 safari/537.36 [crlf] accept: application/json, text/plain, */* [crlf] accept-language: ": 4259,
      "&#99;&#109": 4260,
      "de-de,de;q=0.7 [crlf] connection: keep-alive [crlf] \n": 4261,
      "views": 4262,
      "\\\\u0073\\\\u0074": 4263,
      "strar": 4264,
      "113)+char(": 4265,
      "popen": 4266,
      "body": 4267,
      "proc/self/": 4268,
      "%c0%ae": 4269,
      " my ": 4270,
      "://169.254.169.254/": 4271,
      "currency\": \"": 4272,
      "* from": 4273,
      "nombre=": 4274,
      "put=host=": 4275,
      "s3cur3p@ss!": 4276,
      "&pro": 4277,
      "1a": 4278,
      "<#": 4279,
      "func": 4280,
      "os=": 4281,
      "accept-": 4282,
      "data:": 4283,
      "ntc": 4284,
      "\\0x750072": 4285,
      "direccion": 4286,
      " http/1.1 [crlf] host: www.example.com [crlf] user-agent: mozilla/5.0 (x11; linux i686": 4287,
      ";&#112;&#117": 4288,
      "%3a80": 4289,
      "20.0.6099.130 safari/537.36 [crlf] accept: application/json, text/plain, */* [crlf] accept-language: ": 4290,
      "22.0.6261.128 safari/537.36 [crlf] accept: application/json, text/plain, */* [crlf] accept-language: ": 4291,
      "fr-fr,fr;q=0.7 [crlf] connection: keep-alive [crlf] \n": 4292,
      "pt-br,pt;q=0.5 [crlf] connection: close [crlf] \n": 4293,
      "ko-kr,ko;q=0.9 [crlf] connection: keep-alive [crlf] \n": 4294,
      "md5": 4295,
      "=registrar": 4296,
      "vincia": 4297,
      "%3c%3fxml%20": 4298,
      "\\u0078\\u006d\\u006c \\u0076\\u0065\\u0072\\u0073\\u0069\\u006f\\u006e": 4299,
      "apellid": 4300,
      "ciudad=": 4301,
      "%26%236": 4302,
      "&provincia": 4303,
      "accept-encoding": 4304,
      ".sh": 4305,
      "636": 4306,
      ":\\": 4307,
      "cm": 4308,
      "0x61/": 4309,
      "%25256": 4310,
      "\\u0072\\u006f": 4311,
      "22.0.6261.128 safari/537.36 [crlf] accept: application/json [crlf] accept-language: ": 4312,
      "en-us,en;q=0.5 [crlf] connection: close [crlf] \n": 4313,
      "zh-cn,zh;q=0.7 [crlf] connection: close [crlf] \n": 4314,
      ">&\\u0078\\u0078\\u0065;</": 4315,
      ".example.com [crlf] user-agent: mozilla/5.0 (ipad; cpu os 16_6 like mac os x) applewebkit/605.1.15 (khtml, like gecko) version/17.4 mobile/15e148 safari/604.1": 4316,
      "secret\": \"": 4317,
      "%252e%252e%252f": 4318,
      "modo=regi": 4319,
      ",1": 4320,
      "0f": 4321,
      "@example.com": 4322,
      "pack": 4323,
      "rrec": 4324,
      "wp": 4325,
      "zz": 4326,
      "ple": 4327,
      "se!": 4328,
      "to\": \"20": 4329,
      "dict": 4330,
      "filep": 4331,
      "how": 4332,
      ">&0x780x780x65;</": 4333,
      "\\u0068\\u006f": 4334,
      "c0rrec": 4335,
      "get /api/v1/invoices/": 4336,
      "%253f%253e%253c%2521doctype%2520foo": 4337,
      "format\": \"": 4338,
      "&b1=registrar": 4339,
      "thorse!": 4340,
      "direccion=": 4341,
      "modo=registro": 4342,
      "c0rrecthorse!": 4343,
      "<%": 4344,
      "be ": 4345,
      "ftp": 4346,
      "only": 4347,
      "\\u006f\\u0077": 4348,
      " http/1.1 [crlf] host: app.example.com [crlf] user-agent: mozilla/5.0 (x11; linux i686": 4349,
      "10.0.5481.177 safari/537.36 [crlf] accept: application/json;charset=utf-8 [crlf] accept-language: ": 4350,
      "de-de,de;q=0.9 [crlf] connection: keep-alive [crlf] \n": 4351,
      "es-es,es;q=0.7 [crlf] connection: keep-alive [crlf] \n": 4352,
      "0x650x740x610x64": 4353,
      "events\": \"": 4354,
      "%3f%3e%3c%21doctype%20": 4355,
      "%3c%3fxml%20version%3d%221.0%22": 4356,
      "apellidos=": 4357,
      "filepath": 4358,
      "events\": \"[\\\"": 4359,
      "&dni": 4360,
      "4;": 4361,
      ">\"}\n": 4362,
      "\\\\u0054": 4363,
      "site": 4364,
      "tor": 4365,
      "xk": 4366,
      "tes": 4367,
      ") or ": 4368,
      "example.com [crlf] user-agent: mozilla/5.0 (macintosh; intel mac os x ": 4369,
      "\",\" [crlf] content-type: application/octet-stream [crlf]  [crlf]  [crlf] ------webkitformboundary": 4370,
      "25.0.6422.60 safari/537.36 [crlf] accept: application/json, text/javascript, */*; q=0.01 [crlf] accept-language: ": 4371,
      "en-us,en;q=0.9 [crlf] connection: keep-alive [crlf] \n": 4372,
      "ja-jp,ja;q=0.5 [crlf] connection: close [crlf] \n": 4373,
      "%3d%27": 4374,
      "&#105;&#100;": 4375,
      "publishe": 4376,
      "%253b%2526%2523108": 4377,
      " in": 4378,
      "%f": 4379,
      "9b": 4380,
      "]:80/": 4381,
      "where": 4382,
      "-add": 4383,
      "\", \"variables\": \"": 4384,
      "from\": \"20": 4385,
      "0x720x63": 4386,
      "<!&#68;&#79;&#67;&#84;&#89;&#80;&#69; ": 4387,
      "%253a80": 4388,
      "14.0.5735.199 safari/537.36 [crlf] accept: application/json, text/plain, */* [crlf] accept-language: ": 4389,
      "de-de,de;q=0.8 [crlf] connection: keep-alive [crlf] \n": 4390,
      "%25253b": 4391,
      "::1": 4392,
      " 0x780x780x65 0x530x590x530x540x450x4": 4393,
      "\"><!": 4394,
      "%e": 4395,
      "./": 4396,
      "ale": 4397,
      "bio": 4398,
      ";&#71": 4399,
      "110": 4400,
      "\", \"category\": \"": 4401,
      "\\u0061\\u0063": 4402,
      "\\0x75004": 4403,
      "20.0.6099.130 safari/537.36 [crlf] accept: application/json, text/javascript, */*; q=0.01 [crlf] accept-language: ": 4404,
      "&sort=popularity": 4405,
      "en-us,en;q=0.5": 4406,
      "it-it,it;q=0.7 [crlf] connection: keep-alive [crlf] \n": 4407,
      "max_price=": 4408,
      "&provincia=": 4409,
      "published": 4410,
      "&ciudad=": 4411,
      "&direccion=": 4412,
      ".io": 4413,
      "169.254.169.254": 4414,
      "_name": 4415,
      "por": 4416,
      "\", \"city\": \"": 4417,
      "%2527%2522%252c": 4418,
      "20.0.6099.130 safari/537.36 [crlf] accept: application/json;charset=utf-8 [crlf] accept-language: ": 4419,
      "25.0.6422.60 safari/537.36 [crlf] accept: application/json [crlf] accept-language: ": 4420,
      "ja-jp,ja;q=0.9 [crlf] connection: keep-alive [crlf] \n": 4421,
      "\\u0053\\u0065\\u0074": 4422,
      ")) and (": 4423,
      "windows nt 6.1; win64; x64; rv:": 4424,
      "get /api/v1/orders/": 4425,
      ".example.com [crlf]  [crlf] none\n": 4426,
      "-\\u0043\\u006f\\u006f\\u006b\\u0069\\u0065": 4427,
      "0x630x6d0x64": 4428,
      "tr0ub4d0r&": 4429,
      "\\u0053\\u0065\\u0074-\\u0043\\u006f\\u006f\\u006b\\u0069\\u0065": 4430,
      "(char(": 4431,
      "); ": 4432,
      "sus": 4433,
      "den": 4434,
      "es?page=": 4435,
      "%255cu0053": 4436,
      "ko-kr,ko;q=0.7 [crlf] connection: keep-alive [crlf] \n": 4437,
      "(select (": 4438,
      "00x7869": 4439,
      "&limit=25&page=": 4440,
      ".255": 4441,
      "pended": 4442,
      "%0x630%0x61": 4443,
      "gv": 4444,
      "si": 4445,
      "\\u006a": 4446,
      "ect ": 4447,
      "perf": 4448,
      "\": \"https://": 4449,
      ",*/*;q=0.5": 4450,
      ",image/png": 4451,
      "%75": 4452,
      "\\0x750070": 4453,
      "\\u0045\\u0054": 4454,
      "get /api/v1/invoices?": 4455,
      "7*7}": 4456,
      "dir=file=": 4457,
      "))),0x717a767a": 4458,
      "0x7171706a71,(select (": 4459,
      "modo=registro&login=": 4460,
      "-address": 4461,
      "suspended": 4462,
      "0x7171706a71,(select (elt(": 4463,
      " %}": 4464,
      "\"=\"": 4465,
      ",text/html": 4466,
      ",text/plain": 4467,
      "\\\\u0053": 4468,
      "ping ": 4469,
      "xml,application/": 4470,
      "xml,application/xhtml+xml": 4471,
      "ip-address": 4472,
      ";q=0.8,image/png": 4473,
      ";q=0.9,text/plain": 4474,
      " [crlf] accept: text/xml,application/": 4475,
      "0x630x6f0x6e": 4476,
      "url\": \"https://": 4477,
      "file=file=": 4478,
      "unverified": 4479,
      "it-it,it;q=0.9 [crlf] connection: close [crlf] \n": 4480,
      "en-gb,en;q=0.9 [crlf] connection: keep-alive [crlf] \n": 4481,
      "es-es,es;q=0.8 [crlf] connection: keep-alive [crlf] \n": 4482,
      "substring": 4483,
      "%253d%2527": 4484,
      ";&#105;&#110;&#103;": 4485,
      "%253b%2526%2523105": 4486,
      "%255d%253e%253cfoo": 4487,
      " http/1.1 http/1.1 [crlf] user-agent: mozilla/5.0 (compatible; konqueror/3.5; linux) khtml/3.5.8 (like gecko) [crlf] pragma: no-cache [crlf] cache-control: no-cache [crlf] accept: text/xml,application/": 4488,
      " [crlf] accept-encoding: x-gzip, x-deflate, gzip, deflate [crlf] accept-charset: utf-8, utf-8;q=0.5, *;q=0.5 [crlf] accept-language: en [crlf] host: localhost:8080": 4489,
      ",*/*;q=0.5 [crlf] accept-encoding: x-gzip, x-deflate, gzip, deflate [crlf] accept-charset: utf-8, utf-8;q=0.5, *;q=0.5 [crlf] accept-language: en [crlf] host: localhost:8080": 4490,
      ",text/html;q=0.9,text/plain": 4491,
      "xml,application/xhtml+xml,text/html;q=0.9,text/plain": 4492,
      ";q=0.8,image/png,*/*;q=0.5 [crlf] accept-encoding: x-gzip, x-deflate, gzip, deflate [crlf] accept-charset: utf-8, utf-8;q=0.5, *;q=0.5 [crlf] accept-language: en [crlf] host: localhost:8080": 4493,
      " http/1.1 http/1.1 [crlf] user-agent: mozilla/5.0 (compatible; konqueror/3.5; linux) khtml/3.5.8 (like gecko) [crlf] pragma: no-cache [crlf] cache-control: no-cache [crlf] accept: text/xml,application/xml,application/xhtml+xml,text/html;q=0.9,text/plain": 4494,
      " http/1.1 http/1.1 [crlf] user-agent: mozilla/5.0 (compatible; konqueror/3.5; linux) khtml/3.5.8 (like gecko) [crlf] pragma: no-cache [crlf] cache-control: no-cache [crlf] accept: text/xml,application/xml,application/xhtml+xml,text/html;q=0.9,text/plain;q=0.8,image/png,*/*;q=0.5 [crlf] accept-encoding: x-gzip, x-deflate, gzip, deflate [crlf] accept-charset: utf-8, utf-8;q=0.5, *;q=0.5 [crlf] accept-language: en [crlf] host: localhost:8080": 4495,
      ";&#97;&#108;": 4496,
      "0x690x6d": 4497,
      "25.0.6422.60 safari/537.36 [crlf] accept: application/json;charset=utf-8 [crlf] accept-language: ": 4498,
      "&sort=created": 4499,
      "&sort=position": 4500,
      "zh-cn,zh;q=0.8 [crlf] connection: keep-alive [crlf] \n": 4501,
      "it-it,it;q=0.5 [crlf] connection: keep-alive [crlf] \n": 4502,
      " this ": 4503,
      "%74%65": 4504,
      "summer": 4505,
      "updated_at": 4506,
      "about ": 4507,
      "0\\\\u00786": 4508,
      "9e": 4509,
      "g http/1.1 [crlf] host: localhost [crlf] accept: */* [crlf] \n": 4510,
      ".1.1": 4511,
      "%255cu006d": 4512,
      "\\u0063\\u006f\\u006e": 4513,
      "14.0.5735.199 safari/537.36 [crlf] accept: application/json;charset=utf-8 [crlf] accept-language: ": 4514,
      "00x786500x78": 4515,
      "\\\\u0061\\\\u0064": 4516,
      "amount\": \"": 4517,
      "\\u0044\\u004f\\u0043\\u0054\\u0059\\u0050\\u0045 \\u0066\\u006f\\u006f": 4518,
      " is ": 4519,
      "424": 4520,
      "ome": 4521,
      "does": 4522,
      "\", \"zip\": \"": 4523,
      "\", \"country\": \"": 4524,
      "tore": 4525,
      "20.0.6099.130 safari/537.36 [crlf] accept: application/json [crlf] accept-language: ": 4526,
      "&sort=id": 4527,
      "&sort=date": 4528,
      "es-es,es;q=0.9 [crlf] connection: close [crlf] \n": 4529,
      "rating\": \"": 4530,
      ";&#111;&#99;&#117": 4531,
      "body=": 4532,
      "src=": 4533,
      "get /api/v2/catalog/items/": 4534,
      "\\\\u0068\\\\u0074\\\\u0074\\\\u0070": 4535,
      " http/1.1 http/1.1 [crlf] user-agent: mozilla/5.0 (compatible; konqueror/3.5; linux) khtml/3.5.8 (like gecko) [crlf] pragma: no-cache [crlf] cache-control: no-cache [crlf] accept: text/xml,application/xml,application/xhtml+xml,text/html;q=0.9,text/plain;q=0.8,image/png,*/*;q=0.5 [crlf] accept-encoding: x-gzip, x-deflate, gzip, deflate [crlf] accept-charset: utf-8, utf-8;q=0.5, *;q=0.5 [crlf] accept-language: en [crlf] host: localhost:8080 [crlf] cookie: jsessionid=": 4536,
      "%&#99;0%&#97": 4537,
      "b2": 4538,
      "don": 4539,
      "gw": 4540,
      "get /search?q=m": 4541,
      "\\&#117;0073": 4542,
      "24.0.6367.82 safari/537.36 [crlf] accept: application/json [crlf] accept-language: ": 4543,
      "d http/1.1": 4544,
      "pt-br,pt;q=0.9 [crlf] connection: keep-alive [crlf] \n": 4545,
      "0x760x61": 4546,
      "0x610x740x61/": 4547,
      "title\": \"template=": 4548,
      "&#108;&#111": 4549,
      "&#101;&#118;&#105;&#108;.&#99;&#111;&#109;/": 4550,
      "perfect ": 4551,
      "ted ": 4552,
      "auto": 4553,
      "%2522%252": 4554,
      "%22%2": 4555,
      "fr-fr,fr;q=0.9 [crlf] connection: close [crlf] \n": 4556,
      "es-es,es;q=0.5 [crlf] connection: keep-alive [crlf] \n": 4557,
      "')</": 4558,
      "able": 4559,
      "&#112;&#114": 4560,
      "../../../../": 4561,
      "\\\\u0061\\\\u0073": 4562,
      "webhook\": \"url=": 4563,
      "low-": 4564,
      "0 end": 4565,
      ";&#121;&#115;&#116;&#101;&#109;": 4566,
      " ma": 4567,
      "ns": 4568,
      "ones": 4569,
      "0x56": 4570,
      "%2561": 4571,
      "ine ": 4572,
      "\\\\u00750063": 4573,
      " http/1.1 [crlf] host: dev.example.com [crlf] user-agent: mozilla/5.0 (x11; linux i686": 4574,
      "0x700x65": 4575,
      "14.0.5735.199 safari/537.36 [crlf] accept: application/json, text/javascript, */*; q=0.01 [crlf] accept-language: ": 4576,
      "24.0.6367.82 safari/537.36 [crlf] accept: application/json;charset=utf-8 [crlf] accept-language: ": 4577,
      "24.0.6367.82 safari/537.36 [crlf] accept: application/json, text/javascript, */*; q=0.01 [crlf] accept-language: ": 4578,
      "ko-kr,ko;q=0.5 [crlf] connection: close [crlf] \n": 4579,
      "repeat": 4580,
      "union%2520": 4581,
      ";&#121;": 4582,
      "=(select count(*) from": 4583,
      "tmp/": 4584,
      "option": 4585,
      "md5(": 4586,
      "d http/1.1 [crlf] host: localhost [crlf] accept: */* [crlf] \n": 4587,
      "%2569": 4588,
      ";&#109;&#112": 4589,
      "&sort=size": 4590,
      "%5cr": 4591,
      "en-us,en;q=0.5 [crlf] connection: keep-alive [crlf] \n": 4592,
      "es-es,es;q=0.5 [crlf] connection: close [crlf] \n": 4593,
      "\\&#120;6": 4594,
      "set-cookie%253a%2520": 4595,
      "),0": 4596,
      "alice": 4597,
      "0%80%": 4598,
      "windows nt 10.0; wow64; rv:": 4599,
      "input\": \"host=": 4600,
      "get /api/v1/exports/": 4601,
      "<!entity xxe system": 4602,
      "(select": 4603,
      "=9": 4604,
      "hank": 4605,
      "10&#120;": 4606,
      "s?rating=": 4607,
      "7064": 4608,
      "%255cu0066": 4609,
      "180": 4610,
      "path=/": 4611,
      "en-gb,en;q=0.8 [crlf] connection: keep-alive [crlf] \n": 4612,
      "x11; ubuntu; linux x86_64; rv:": 4613,
      "%25253d": 4614,
      "\\\\u0075006\\u0063": 4615,
      "91.0.44": 4616,
      "\\u0079\\u0073\\u0074": 4617,
      "%3e%26xxe%3b%3c%2f": 4618,
      " [crlf] authorization: basic <base64_encoded_username:password": 4619,
      "91.0.4472": 4620,
      "8d": 4621,
      "wi": 4622,
      "x25": 4623,
      "\\\\\\\\u0075006": 4624,
      "%255cu0078": 4625,
      "make": 4626,
      "%5cu006d": 4627,
      "\\\\u00750072": 4628,
      " http/1.1 [crlf] host: backend.example.com [crlf] user-agent: mozilla/5.0 (x11; linux i686": 4629,
      ")))": 4630,
      "0x700x75": 4631,
      "it-it,it;q=0.8 [crlf] connection: keep-alive [crlf] \n": 4632,
      "grace": 4633,
      "2130": 4634,
      "&limit=20&page=": 4635,
      "%253b%2526%2523114": 4636,
      "shell\": \"host=": 4637,
      "&#100;&#97;&#116;&#97;": 4638,
      "0x750x6e0x690x6f0x6e": 4639,
      "%2526%2523120%253b": 4640,
      "%253f%253e%253c%2521doctype%2520foo%2520%255b": 4641,
      "lf] [": 4642,
      "%252f1.1": 4643,
      "\\u0074.": 4644,
      ";&#115;&#116": 4645,
      "%27%3e": 4646,
      "%5c%5c": 4647,
      ";&#112;&#115;": 4648,
      "sysibm.systables as t": 4649,
      "%253b%2526%252399": 4650,
      "unpublish": 4651,
      "25.0.6422.60 safari/537.36 [crlf] accept: application/json, text/plain, */* [crlf] accept-language: ": 4652,
      "ja-jp,ja;q=0.5 [crlf] connection: keep-alive [crlf] \n": 4653,
      "en-gb,en;q=0.5 [crlf] connection: close [crlf] \n": 4654,
      "....%2f%2f": 4655,
      "0x6f0x630x75": 4656,
      "&& ": 4657,
      " union all select null": 4658,
      "%25252e%25252e": 4659,
      "0x780x6d0x6c ": 4660,
      ") then 1 else 0 end": 4661,
      "bench": 4662,
      "drivers": 4663,
      ",md5(": 4664,
      "192.168": 4665,
      ";lert": 4666,
      "=file=\"": 4667,
      "@ac": 4668,
      "set ": 4669,
      "httponly": 4670,
      "aft": 4671,
      "64,": 4672,
      "%3&#65;": 4673,
      "host\": \"host=": 4674,
      "s?event_type=": 4675,
      "0x6d0x690x6e": 4676,
      "fr-fr,fr;q=0.8 [crlf] connection: keep-alive [crlf] \n": 4677,
      "filename=file=": 4678,
      "get /api/v1/users/template=": 4679,
      "mark(5000000": 4680,
      "&order=asc": 4681,
      "x61;lert": 4682,
      "%2560%2560%256": 4683,
      "%5cr%5cn": 4684,
      "benchmark(5000000": 4685,
      "benchmark(5000000,md5(": 4686,
      "1c": 4687,
      "1e": 4688,
      "pur": 4689,
      "raw": 4690,
      "end ": 4691,
      "%253dalert": 4692,
      "dave": 4693,
      "ms_": 4694,
      "18.0.5993.88 safari/537.36 [crlf] accept: application/json [crlf] accept-language: ": 4695,
      "22.0.6261.128 safari/537.36 [crlf] accept: application/json;charset=utf-8 [crlf] accept-language: ": 4696,
      "fr-fr,fr;q=0.5 [crlf] connection: close [crlf] \n": 4697,
      "pt-br,pt;q=0.7 [crlf] connection: keep-alive [crlf] \n": 4698,
      "\\\\u0063\\\\u0072": 4699,
      "&#102;0&#120;6": 4700,
      "dbms_": 4701,
      "&read=false": 4702,
      "blue": 4703,
      "844": 4704,
      ";${ifs}": 4705,
      "tin": 4706,
      "0x740x61": 4707,
      "ja-jp,ja;q=0.8 [crlf] connection: keep-alive [crlf] \n": 4708,
      "\", http/1.1 [crlf] host: staging": 4709,
      "0x670x650x74": 4710,
      "/bin": 4711,
      "custom": 4712,
      "&read=true": 4713,
      "msg=\"'<": 4714,
      "\\\\u0063\\\\u006f\\\\u006d": 4715,
      "variant\": \"": 4716,
      "include": 4717,
      "dtd": 4718,
      "onfocus": 4719,
      "&#79": 4720,
      "server": 4721,
      "%25257d": 4722,
      "restore": 4723,
      "&sort=rank": 4724,
      "en-us,en;q=0.7 [crlf] connection: keep-alive [crlf] \n": 4725,
      "de-de,de;q=0.7 [crlf] connection: close [crlf] \n": 4726,
      "0x410x41": 4727,
      ".example.com [crlf] user-agent: mozilla/5.0 (linux; android 12; sm-a525f) applewebkit/537.36 (khtml, like gecko) chrome/110.0.5481.177 mobile": 4728,
      "\\\\&#117;006": 4729,
      "\\u004c\\u006f\\u0063": 4730,
      ".</p>": 4731,
      "&in_stock": 4732,
      "0x780x6d0x6c 0x760x650x720x730x690x6f0x6e": 4733,
      "'t ": 4734,
      "\\\\u0043": 4735,
      "a.": 4736,
      "d\"}\n": 4737,
      "ug": 4738,
      "yo": 4739,
      "inactive": 4740,
      "get /search?q=-8": 4741,
      "68.0": 4742,
      "\\u0073\\u0073": 4743,
      "redirect\": \"url=": 4744,
      "orders/": 4745,
      "%2c+": 4746,
      "en-gb,en;q=0.5 [crlf] connection: keep-alive [crlf] \n": 4747,
      "24-04-01": 4748,
      "500x786": 4749,
      "\\0x750060x65": 4750,
      "me.com": 4751,
      "%60%60%6": 4752,
      "0x730x650x6c0x650x630x74 ": 4753,
      "0\\\\u0078": 4754,
      "\\\\u0044": 4755,
      "a4": 4756,
      "ref": 4757,
      "enter": 4758,
      "%252560": 4759,
      "%253b%2526%2523115": 4760,
      ";&#84;&#84": 4761,
      "&sort=price": 4762,
      "boo": 4763,
      "get /api/v1/messages/template=": 4764,
      "%25255cx": 4765,
      "100x78": 4766,
      "@acme.com": 4767,
      "\\u004c\\u006f\\u0063\\u0061\\u0074\\u0069\\u006f\\u006e": 4768,
      "\")": 4769,
      "736": 4770,
      "ll ": 4771,
      "\\&#114;": 4772,
      "0x700x6f": 4773,
      "book": 4774,
      ";&#120;": 4775,
      "evil.com%2f": 4776,
      "cart/items/": 4777,
      "defg": 4778,
      "=(select count(*) from ": 4779,
      "welcom": 4780,
      " [crlf] user-agent: curl/7.68.0": 4781,
      "php://filter/read=": 4782,
      "&min_price=": 4783,
      " post": 4784,
      "uz": 4785,
      "{%": 4786,
      "hosts": 4787,
      "s?type=": 4788,
      "quar": 4789,
      "</strong>": 4790,
      "&#115;&#114;&#99": 4791,
      "%29%20": 4792,
      "could ": 4793,
      "set-cookie: ": 4794,
      "0x610x640x6d0x690x6e": 4795,
      "design": 4796,
      "pending": 4797,
      " by ": 4798,
      "%68%74": 4799,
      "articl": 4800,
      "proxy=": 4801,
      "0:0:": 4802,
      "union%20select%20": 4803,
      "bio\": \"": 4804,
      "706433": 4805,
      "\\u0079\\u0073\\u0074\\u0065\\u006d": 4806,
      "2130706433": 4807,
      "-e": 4808,
      "\\\\u0041": 4809,
      "/**": 4810,
      "dest": 4811,
      ";&#106": 4812,
      "%5cu0064": 4813,
      "&sort=total": 4814,
      "foo%253e\n": 4815,
      ".example.com [crlf] user-agent: mozilla/5.0 (linux; android 12; sm-a525f) applewebkit/537.36 (khtml, like gecko) chrome/125.0.6422.60 mobile": 4816,
      "exec\": \"host=": 4817,
      ") and ((": 4818,
      "attacker.com/": 4819,
      "&#97;&#100;&#109": 4820,
      "2b": 4821,
      "y http/1.1 [crlf] host: localhost [crlf] accept: */* [crlf] \n": 4822,
      "%2e/": 4823,
      "&#88": 4824,
      "\\u006e ": 4825,
      " [crlf] accept: application/": 4826,
      "ipping ": 4827,
      "%25257b": 4828,
      "\\u0074\\u0065": 4829,
      "50\\u0078": 4830,
      "%27%22%2c": 4831,
      "%00.": 4832,
      "&sort=score": 4833,
      "en-gb,en;q=0.7 [crlf] connection: close [crlf] \n": 4834,
      "readme.": 4835,
      "&limit=10&page=": 4836,
      "gop": 4837,
      "\\\\u0075006\\u0065": 4838,
      "set-cookie:/**/": 4839,
      "es?type=": 4840,
      "&#104;&#116;&#116;&#112;&#115;": 4841,
      ".1700000000; session=": 4842,
      "next=url=": 4843,
      "112)||chr(": 4844,
      "windows\\": 4845,
      "%2522%253e%255d%253e%253cfoo": 4846,
      "%253e%2526xxe%253b%253c%252ffoo%253e\n": 4847,
      "abcdefg": 4848,
      "%2560%2560%2560xml": 4849,
      "%2522%253e%255d%253e%253cfoo%253e%2526xxe%253b%253c%252ffoo%253e\n": 4850,
      " p": 4851,
      "\"'": 4852,
      "['": 4853,
      "ide": 4854,
      "xl": 4855,
      "{}": 4856,
      "...": 4857,
      "\", \"subject\": \"": 4858,
      "0x650x6c0x6c": 4859,
      "\\u0069\\u0064": 4860,
      ";&#116;.": 4861,
      "%5&#67;": 4862,
      "union/**/": 4863,
      "....\\\\": 4864,
      "request\": \"url=": 4865,
      "\", http/1.1 [crlf] host: www": 4866,
      "0x740x650x780x74": 4867,
      " http/1.1 [crlf] host: api.example.io [crlf] user-agent: mozilla/5.0 (x11; linux aarch64) applewebkit/537.36 (khtml, like gecko) chrome/1": 4868,
      "0x4c0x6f0x63": 4869,
      "load_file(": 4870,
      "%3c%21entity%20%25": 4871,
      "substring(": 4872,
      "dest\": \"url=": 4873,
      "&level=": 4874,
      "sk": 4875,
      "zd": 4876,
      "arr": 4877,
      "asp": 4878,
      "get /search?q=b": 4879,
      "\", \"content\": \"": 4880,
      "\\0x750064": 4881,
      "\\&#117;0069": 4882,
      "%25252522": 4883,
      "18.0.5993.88 safari/537.36 [crlf] accept: application/json, text/javascript, */*; q=0.01 [crlf] accept-language: ": 4884,
      "%3b%26%23115": 4885,
      "ko-kr,ko;q=0.8 [crlf] connection: keep-alive [crlf] \n": 4886,
      "\\\\u006f\\\\u0063": 4887,
      "rating=1": 4888,
      "shell=host=": 4889,
      "faile": 4890,
      "modified_at": 4891,
      "document=file=": 4892,
      "gopher": 4893,
      "&subject=": 4894,
      "27.0.0.1": 4895,
      "=0x610x6c0x650x720x74": 4896,
      "sleep": 4897,
      ".0.0": 4898,
      "0x6c0x61": 4899,
      "&sort=rating": 4900,
      "('xss": 4901,
      "%3b%26%2397": 4902,
      "\\x65": 4903,
      "document.cookie": 4904,
      "domain.": 4905,
      "@mail": 4906,
      "fre": 4907,
      "f http/1.1 [crlf] host: localhost [crlf] accept: */* [crlf] \n": 4908,
      "now": 4909,
      "%2563": 4910,
      "well": 4911,
      "reject": 4912,
      "://0": 4913,
      "url=\"": 4914,
      "\\\\u00750073": 4915,
      "&#101;&#99": 4916,
      "%3e%5cn": 4917,
      "%2525252e": 4918,
      ") applewebkit/605.1.15 (khtml, like gecko) version/17.2 safari/605.1.15 [crlf] accept: text/html,application/xhtml+xml,application/xml;q=0.9,image/webp,*/*;q=0.8 [crlf] accept-language: ": 4919,
      "track": 4920,
      "%65%64": 4921,
      "\", http/1.1 [crlf] host: backend": 4922,
      "uri=url=": 4923,
      " [crlf] user-agent: mozilla/5.0 (windows nt 10.0; win64; x64) applewebkit/537.36 (khtml, like gecko) chrome/92.0.4515.159": 4924,
      "information_schema.tables": 4925,
      "latest/": 4926,
      "%3f%3e%3c%21doctype%20foo": 4927,
      "union%2520select%2520": 4928,
      "quarter": 4929,
      "%>": 4930,
      "&max_price=": 4931,
      "=2": 4932,
      "@test": 4933,
      "cr%255cn": 4934,
      ") from dual": 4935,
      "%3dalert": 4936,
      "%252564": 4937,
      "out ": 4938,
      "\\u0061\\u0072": 4939,
      "\\u0069\\u0063": 4940,
      "en-us [crlf] connection: close [crlf] content-type: application/json [crlf]  [crlf] {\"": 4941,
      "%255cr%255cn": 4942,
      "ko-kr,ko;q=0.9 [crlf] connection: close [crlf] \n": 4943,
      "cii": 4944,
      "0x690x6e0x67": 4945,
      ".example.com [crlf] user-agent: mozilla/5.0 (linux; android 13; pixel 7) applewebkit/537.36 (khtml, like gecko) chrome/114.0.5735.199 mobile": 4946,
      ".example.com [crlf] user-agent: mozilla/5.0 (linux; android 13; sm-g991b) applewebkit/537.36 (khtml, like gecko) chrome/124.0.6367.82 mobile": 4947,
      "\\\\0x75006": 4948,
      "\\u0069\\u006e\\u0067": 4949,
      "get /v2/products?": 4950,
      "hello": 4951,
      "\\u0047\\u0045\\u0054": 4952,
      "decode": 4953,
      "/**/foo/**/[": 4954,
      "approve": 4955,
      "%60%60%60xml": 4956,
      ";&#84;&#84;&#80;": 4957,
      "&nombre=": 4958,
      "-b": 4959,
      "/\\u0072\\u0065": 4960,
      "> /": 4961,
      "je": 4962,
      "z http/1.1 [crlf] host: localhost [crlf] accept: */* [crlf] \n": 4963,
      "carol": 4964,
      " (select": 4965,
      "105": 4966,
      "expl": 4967,
      "rer": 4968,
      "\\\\u0079": 4969,
      ";&#101; ": 4970,
      "frank": 4971,
      "\\u0069\\u006f": 4972,
      "url=url=": 4973,
      ".example.com [crlf] user-agent: mozilla/5.0 (linux; android 13; sm-g991b) applewebkit/537.36 (khtml, like gecko) chrome/120.0.6099.130 mobile": 4974,
      ".example.com [crlf] user-agent: mozilla/5.0 (linux; android 14; pixel 8) applewebkit/537.36 (khtml, like gecko) chrome/110.0.5481.177 mobile": 4975,
      "&type=archive": 4976,
      "%2e%2e/": 4977,
      ";&#98;&#117": 4978,
      "0x650x6e0x74": 4979,
      "0x650x630x680x6f": 4980,
      "&#102;&#111;&#111;>&&#120;&#120;&#101;;</": 4981,
      "commen": 4982,
      "template=\"{{": 4983,
      ";&#101;&#116;-&#67;&#111;&#111;&#107;&#105;&#101;: ": 4984,
      "\\\\u0069\\\\u0070\\\\u0074": 4985,
      "@mailtest": 4986,
      "@test.org": 4987,
      "&#102;&#111;&#111;>&&#120;&#120;&#101;;</&#102;&#111;&#111;": 4988,
      "%\\u00630%\\u0061": 4989,
      "@dev": 4990,
      "md http/1.1": 4991,
      "ute": 4992,
      ") union all select ": 4993,
      "comple": 4994,
      "get /search?q=<": 4995,
      "\", \"query\": \"": 4996,
      "\", \"billing_cycle\": \"": 4997,
      "ids=": 4998,
      "path=file=": 4999,
      "0x620x75": 5000,
      ".example.com [crlf] user-agent: mozilla/5.0 (linux; android 13; pixel 7) applewebkit/537.36 (khtml, like gecko) chrome/124.0.6367.82 mobile": 5001,
      ".example.com [crlf] user-agent: mozilla/5.0 (linux; android 13; sm-g991b) applewebkit/537.36 (khtml, like gecko) chrome/114.0.5735.199 mobile": 5002,
      "\">]><&#102;&#111;&#111;>&&#120;&#120;&#101;;</&#102;&#111;&#111;": 5003,
      " [<!0x450x4e0x540x490x540x59": 5004,
      "&#102;&#111;&#111; [<!": 5005,
      "from dual ": 5006,
      "`1`>": 5007,
      "fetch=url=": 5008,
      "%253c%2521entity%2520xxe%2520system%2520%2522": 5009,
      "&#115;&#101;&#108;&#101;&#99;&#116; ": 5010,
      "xp_": 5011,
      "proc/self/environ": 5012,
      "%253f%253e%253c%2521doctype%2520foo%2520%255b%253c%2521entity%2520xxe%2520system%2520%2522": 5013,
      "/bin/": 5014,
      "\">]><&#102;&#111;&#111;>&&#120;&#120;&#101;;</&#102;&#111;&#111;>\n": 5015,
      "&cp": 5016,
      "c http/1.1 [crlf] host: localhost [crlf] accept: */* [crlf] \n": 5017,
      "gexp_": 5018,
      "116": 5019,
      "ample.io": 5020,
      "-- ": 5021,
      "tail": 5022,
      "%25256f": 5023,
      "do ": 5024,
      "\", \"body\": \"": 5025,
      "30\\u00786": 5026,
      "\\&#117;0063": 5027,
      "null.io": 5028,
      "%2522%252c\n": 5029,
      ";&#115;.": 5030,
      "subscriptions/": 5031,
      "set-cookie%3a%20": 5032,
      "),5000000": 5033,
      "get /api/v2/search/products?": 5034,
      ";&#111;&#117;&#114;&#99": 5035,
      "&#68;&#79;&#67;&#84;&#89;&#80;&#69; &#102;&#111;&#111; [<!": 5036,
      "javascript:alert": 5037,
      "@sample.io": 5038,
      "%5d%3e%3cfoo": 5039,
      "),0),5000000": 5040,
      "\\\\u0063\\\\u0072\\\\u0069\\\\u0070\\\\u0074": 5041,
      "0x4c0x6f0x630x610x740x690x6f0x6e": 5042,
      "substring(repeat": 5043,
      "&#101;&#99;&#104;&#111": 5044,
      "@mailtest.net": 5045,
      "@devnull.io": 5046,
      "gexp_substring(repeat": 5047,
      "0gw": 5048,
      "4yw": 5049,
      "7ma": 5050,
      "pg": 5051,
      "r http/1.1 [crlf] host: localhost [crlf] accept: */* [crlf] \n": 5052,
      "http%252f1.1": 5053,
      "0x7a": 5054,
      " src": 5055,
      "%253&#65;": 5056,
      "%253croot": 5057,
      "line": 5058,
      "%255cu0054": 5059,
      "from%20": 5060,
      "%253d1": 5061,
      "trzu": 5062,
      " [crlf] content-disposition: form-data; name=\"file\"; filename=\"file": 5063,
      "evil.com%252f": 5064,
      ".example.com [crlf] user-agent: mozilla/5.0 (linux; android 13; pixel 7) applewebkit/537.36 (khtml, like gecko) chrome/118.0.5993.88 mobile": 5065,
      "exec=host=": 5066,
      "0x680x740x740x700x73": 5067,
      "next\": \"url=": 5068,
      "%63%6": 5069,
      "\\u0073\\u0063\\u0072\\u0069\\u0070\\u0074>": 5070,
      "class": 5071,
      "prise": 5072,
      "&#117;&#110;&#105;&#111;&#110": 5073,
      "docs/readme.": 5074,
      "xktrzu": 5075,
      "make_set": 5076,
      "\\x65\\x": 5077,
      "4ywxktrzu": 5078,
      "7ma4ywxktrzu": 5079,
      "7ma4ywxktrzu0gw": 5080,
      " 0x6f0x6e": 5081,
      "&apellidos=": 5082,
      "%252&#101;": 5083,
      "interf": 5084,
      "get /search?q=4": 5085,
      "%5cu0070": 5086,
      "%2527%2527": 5087,
      "%2529%2520": 5088,
      "00x7865": 5089,
      "&type=image": 5090,
      "\\\\u0068\\\\u006f": 5091,
      "))) and ": 5092,
      ".js": 5093,
      "p><strong>": 5094,
      "processing": 5095,
      "filepath=file=": 5096,
      "purcha": 5097,
      "enterprise": 5098,
      "union/**/select": 5099,
      "@de": 5100,
      "bw": 5101,
      "i'": 5102,
      "&#73": 5103,
      "%256f": 5104,
      ";&#70;": 5105,
      "%3croot": 5106,
      "get /api/v1/status": 5107,
      "pause": 5108,
      "789": 5109,
      "%255cu0049": 5110,
      "0x6c0x6f0x63": 5111,
      "\\0x750066": 5112,
      "\\u0072\\u0063\\u0065": 5113,
      "message\": \"template=": 5114,
      "&sort=name": 5115,
      "foo/>\n": 5116,
      "('id": 5117,
      "%3b%26%2399": 5118,
      ".example.com [crlf] user-agent: mozilla/5.0 (linux; android 13; pixel 7) applewebkit/537.36 (khtml, like gecko) chrome/122.0.6261.128 mobile": 5119,
      "&type=video": 5120,
      ".1700000000 [crlf] \n": 5121,
      "msg=';": 5122,
      "s as t1,": 5123,
      "s as t2,": 5124,
      ">\\n\",\n": 5125,
      "get /api/v1/notifications/template=": 5126,
      "http://evil.com/evil.dtd": 5127,
      "0x440x4f0x430x540x590x500x45 0x660x6f0x6f": 5128,
      "learning": 5129,
      "%0x630%0x610x65": 5130,
      "&title=": 5131,
      "ged": 5132,
      ";&#90": 5133,
      "117": 5134,
      "..%25252f": 5135,
      "\", \"status\": \"": 5136,
      "%2527%253e": 5137,
      "zh-cn [crlf] connection: close [crlf] content-type: application/json [crlf]  [crlf] {\"": 5138,
      "%25252c": 5139,
      "0&#120;4": 5140,
      "\\\\u0065\\\\u006e": 5141,
      "\", http/1.1 [crlf] host: app": 5142,
      "ko-kr [crlf] connection: close [crlf] content-type: application/json [crlf]  [crlf] {\"": 5143,
      ".example.com [crlf] user-agent: mozilla/5.0 (linux; android 12; sm-a525f) applewebkit/537.36 (khtml, like gecko) chrome/114.0.5735.199 mobile": 5144,
      "run\": \"host=": 5145,
      "os.system": 5146,
      "%25c0%25ae": 5147,
      "0x750x6e0x690x6f0x6e ": 5148,
      "comment=": 5149,
      " [crlf] content-disposition: form-data; name=\"file\"; filename=\"file=\"": 5150,
      "purchase": 5151,
      "+de": 5152,
      ".in": 5153,
      "ica": 5154,
      "ues": 5155,
      "de-de,de;q=0.5 [crlf] connection: keep-alive [crlf] \n": 5156,
      "location:": 5157,
      ".example.com [crlf] user-agent: mozilla/5.0 (linux; android 13; sm-g991b) applewebkit/537.36 (khtml, like gecko) chrome/110.0.5481.177 mobile": 5158,
      ".example.com [crlf] user-agent: mozilla/5.0 (linux; android 14; pixel 8) applewebkit/537.36 (khtml, like gecko) chrome/124.0.6367.82 mobile": 5159,
      "archived": 5160,
      ";select (case when (": 5161,
      "%25281%2529%253e": 5162,
      "generate": 5163,
      "year": 5164,
      " your_": 5165,
      "globals": 5166,
      "click": 5167,
      "dar": 5168,
      "%252563": 5169,
      "frame": 5170,
      "30&#120;": 5171,
      "0x730x720x63": 5172,
      "0x630x6b": 5173,
      ";&#115;&#116;": 5174,
      "0x720x630x65": 5175,
      "users?role=": 5176,
      "%257b%2525": 5177,
      ") applewebkit/537.36 (khtml, like gecko) chrome/114.0.5735.199 safari/537.36 [crlf] accept: application/json;charset=utf-8 [crlf] accept-language: ": 5178,
      "121.0) gecko/20100101 firefox/121.0 [crlf] accept: application/json, text/plain, */* [crlf] accept-language: ": 5179,
      "(1)></": 5180,
      ".example.com [crlf] user-agent: mozilla/5.0 (linux; android 14; pixel 8) applewebkit/537.36 (khtml, like gecko) chrome/125.0.6422.60 mobile": 5181,
      "callback\": \"url=": 5182,
      "%253c%2521entity%2520%2525": 5183,
      "@web": 5184,
      "k http/1.1 [crlf] host: localhost [crlf] accept: */* [crlf] \n": 5185,
      "tcp": 5186,
      "%2564": 5187,
      "cart": 5188,
      "for the ": 5189,
      "macro": 5190,
      "de-de [crlf] connection: close [crlf] content-type: application/json [crlf]  [crlf] {\"": 5191,
      " work": 5192,
      "00x7873": 5193,
      ") applewebkit/605.1.15 (khtml, like gecko) version/17.4 safari/605.1.15 [crlf] accept: text/html, application/xhtml+xml, application/xml;q=0.9, */*;q=0.8 [crlf] accept-language: ": 5194,
      "\", http/1.1 [crlf] host: api": 5195,
      "addresses/": 5196,
      "ping=host=": 5197,
      "0x6a0x61": 5198,
      "length: ": 5199,
      "cancelle": 5200,
      "gle.": 5201,
      "completed": 5202,
      "make_set(": 5203,
      "'s ": 5204,
      "0e": 5205,
      "a s": 5206,
      "ban": 5207,
      "eu": 5208,
      "mtext": 5209,
      "103": 5210,
      " [crlf] user-agent: mozilla/5.0 (x11; linux ": 5211,
      "get /api/v1/stat": 5212,
      "%252528": 5213,
      "if ": 5214,
      ";&#97;&#118": 5215,
      "%5cu0078": 5216,
      "\\u0063\\u006d": 5217,
      "error": 5218,
      "166": 5219,
      "mail.org": 5220,
      "\\x74": 5221,
      "windows nt 10.0; win64; x64; rv:": 5222,
      "%22%2c\n": 5223,
      ".example.com [crlf] user-agent: mozilla/5.0 (linux; android 13; pixel 7) applewebkit/537.36 (khtml, like gecko) chrome/125.0.6422.60 mobile": 5224,
      ".example.com [crlf] user-agent: mozilla/5.0 (linux; android 13; sm-g991b) applewebkit/537.36 (khtml, like gecko) chrome/118.0.5993.88 mobile": 5225,
      ".__globals": 5226,
      ".1700000000; ": 5227,
      "0x650x760x690x6c.0x630x6f0x6d/": 5228,
      "p><em>": 5229,
      " [crlf] authorization: basic <base64_encoded_username:password> [crlf] host: ": 5230,
      "proxy=url=": 5231,
      "@webmail.org": 5232,
      " and": 5233,
      "<script>alert": 5234,
      "gam": 5235,
      "href": 5236,
      "detail": 5237,
      "get /search?q=ca": 5238,
      "\", \"type\": \"": 5239,
      "%2520src": 5240,
      "%255cu0045": 5241,
      "');": 5242,
      " the": 5243,
      ") applewebkit/605.1.15 (khtml, like gecko) version/16.6 safari/605.1.15 [crlf] accept: text/html,application/xhtml+xml,application/xml;q=0.9,image/webp,*/*;q=0.8 [crlf] accept-language: ": 5244,
      ";&#102;&#105": 5245,
      ".example.com [crlf] user-agent: mozilla/5.0 (linux; android 14; pixel 8) applewebkit/537.36 (khtml, like gecko) chrome/122.0.6261.128 mobile": 5246,
      "\">]><\\u0066\\u006f\\u006f": 5247,
      "get /api/v1/analytics/users?": 5248,
      "?to=2024-0": 5249,
      "uri\": \"url=": 5250,
      "get /api/v1/products/1": 5251,
      "\\\\u0065\\\\u0072\\\\u0074": 5252,
      "fetch\": \"url=": 5253,
      "get /api/v1/users/5": 5254,
      "2))": 5255,
      "so": 5256,
      "|/**/": 5257,
      "tions as t": 5258,
      "\\\\/": 5259,
      "\\u0073\\u006f\\u0075": 5260,
      " http/1.1 [crlf] host: api.example.io [crlf] user-agent: mozilla/5.0 (linux; android 13; sm-g991b": 5261,
      ";&#112;&#108;&#101;": 5262,
      "\\&#117;0072": 5263,
      "%255&#67": 5264,
      "\\x69": 5265,
      ") applewebkit/537.36 (khtml, like gecko) chrome/114.0.5735.199 safari/537.36 [crlf] accept: application/json [crlf] accept-language: ": 5266,
      ") applewebkit/537.36 (khtml, like gecko) chrome/120.0.6099.130 safari/537.36 [crlf] accept: application/json [crlf] accept-language: ": 5267,
      "tri": 5268,
      ".1700000000; csrf=": 5269,
      "0x610x6d0x65": 5270,
      "%25253a%25252f%25252f": 5271,
      "\\u0073\\u0065\\u006c\\u0065\\u0063\\u0074 ": 5272,
      "&#99;&#109;&#100;": 5273,
      ">&\\u0078\\u0078\\u0065;</\\u0066\\u006f\\u006f": 5274,
      "@demo": 5275,
      "0x750x6e0x690x6f0x6e 0x730x650x6c0x650x630x74 ": 5276,
      "\\u0073\\u006f\\u0075\\u0072\\u0063\\u0065": 5277,
      ")/**/": 5278,
      "/0x720x65": 5279,
      "323": 5280,
      "az": 5281,
      "get /api/v1/cart": 5282,
      " http/1.1 [crlf] host: api.example.io [crlf] user-agent: mozilla/5.0 (windows nt 6.1; win64; x64) applewebkit/537.36 (khtml, like gecko) chrome/1": 5283,
      "es-es [crlf] connection: close [crlf] content-type: application/json [crlf]  [crlf] {\"": 5284,
      "de-de [crlf] connection: keep-alive [crlf] content-type: application/json [crlf]  [crlf] {\"": 5285,
      "<!\\u0044\\u004f\\u0043\\u0054\\u0059\\u0050\\u0045 ": 5286,
      "' from dual ": 5287,
      ") applewebkit/537.36 (khtml, like gecko) chrome/124.0.6367.82 safari/537.36 [crlf] accept: application/json [crlf] accept-language: ": 5288,
      ") applewebkit/537.36 (khtml, like gecko) chrome/118.0.5993.88 safari/537.36 [crlf] accept: application/json;charset=utf-8 [crlf] accept-language: ": 5289,
      ") applewebkit/605.1.15 (khtml, like gecko) version/17.0 safari/605.1.15 [crlf] accept: text/html,application/xhtml+xml,application/xml;q=0.9,*/*;q=0.8 [crlf] accept-language: ": 5290,
      "of the ": 5291,
      "&#98;": 5292,
      " [crlf] user-agent: mozilla/5.0 (macintosh; intel mac os x 10_15_7) applewebkit/537.36 (khtml, like gecko) chrome/": 5293,
      "0177.0": 5294,
      ";&#97;&#109;&#112;&#108;&#101;": 5295,
      "have ": 5296,
      "\\u0044\\u004f\\u0043\\u0054\\u0059\\u0050\\u0045 \\u0066\\u006f\\u006f [<!": 5297,
      ";&#111;&#117;&#114;&#99;&#101;": 5298,
      "interfac": 5299,
      "\">]><\\u0066\\u006f\\u006f>&\\u0078\\u0078\\u0065;</\\u0066\\u006f\\u006f": 5300,
      "' from dual where ": 5301,
      "0177.0.0.1": 5302,
      "\">]><\\u0066\\u006f\\u006f>&\\u0078\\u0078\\u0065;</\\u0066\\u006f\\u006f>\n": 5303,
      "';": 5304,
      "*(select ": 5305,
      ".goo": 5306,
      "gif": 5307,
      "llow-": 5308,
      "wri": 5309,
      "\": \"msg=": 5310,
      "..%c0%af": 5311,
      "\\\\\\\\u0078": 5312,
      ";&#97;&#121": 5313,
      ";q=0.7 [crlf] connection: close [crlf] content-type: multipart/form-data; boundary=----webkitformboundary": 5314,
      "%27%27": 5315,
      "443": 5316,
      "zh-cn [crlf] connection: keep-alive [crlf] content-type: application/json [crlf]  [crlf] {\"": 5317,
      "0&#120;73": 5318,
      "iphone; cpu iphone os 14": 5319,
      "location%3a%20": 5320,
      "request=url=": 5321,
      "cmd\": \"host=": 5322,
      "&#108;&#111;&#99": 5323,
      "\\u0066\\u0069\\u006c\\u0074\\u0065\\u0072": 5324,
      "run=host=": 5325,
      "0x730x680x610x64": 5326,
      "&#104;&#116;&#116;&#112;://&#101;&#118;&#105;&#108;.&#99;&#111;&#109;/": 5327,
      "%3c%21doctype%20root": 5328,
      "\\u0070\\u0068\\u0070://": 5329,
      "get /internal/health?": 5330,
      "%3f%3e%3c%21doctype%20foo%20%5b": 5331,
      "get /api/v1/cart?": 5332,
      "0c": 5333,
      ">',": 5334,
      "hb": 5335,
      ";&#86": 5336,
      "%2520x65": 5337,
      "%252570": 5338,
      "0x640x69": 5339,
      " http/1.1 [crlf] host: example.com [crlf] user-agent: mozilla/5.0 (windows nt 6.3; win64; x64) applewebkit/537.36 (khtml, like gecko) chrome/1": 5340,
      "<!0x440x4f0x430x540x590x500x45 ": 5341,
      "y\": \"url=": 5342,
      ") applewebkit/537.36 (khtml, like gecko) chrome/118.0.5993.88 safari/537.36 [crlf] accept: application/json [crlf] accept-language: ": 5343,
      "http://attacker.com/": 5344,
      "\\\\0x786": 5345,
      ".example.com [crlf] user-agent: mozilla/5.0 (linux; android 12; sm-a525f) applewebkit/537.36 (khtml, like gecko) chrome/118.0.5993.88 mobile": 5346,
      "dest=url=": 5347,
      "0x680x740x740x70": 5348,
      "proxy\": \"url=": 5349,
      ";&#97;&#99;&#107": 5350,
      ",1))),0x717a767a": 5351,
      "0/": 5352,
      "7500": 5353,
      " [crlf] accept-language: accept-encoding": 5354,
      "\", \"token\": \"": 5355,
      "\", \"to\": \"20": 5356,
      "\", \"format\": \"": 5357,
      "%2f1.1": 5358,
      "/**/root": 5359,
      "%79": 5360,
      "0x720x6c": 5361,
      "0x6e0x64": 5362,
      "\\0x750078": 5363,
      "%253e%255cn": 5364,
      "|| ": 5365,
      ") applewebkit/537.36 (khtml, like gecko) chrome/122.0.6261.128 safari/537.36 [crlf] accept: application/json, text/plain, */* [crlf] accept-language: ": 5366,
      "124.0) gecko/20100101 firefox/124.0 [crlf] accept: application/json, text/javascript, */*; q=0.01 [crlf] accept-language: ": 5367,
      "\", http/1.1 [crlf] host: dev": 5368,
      "https%3a%2f%2f": 5369,
      "&#102;&#105;&#108;&#116;&#101;&#114": 5370,
      "%3c%2fscript%3e": 5371,
      ")||chr(113)||chr(": 5372,
      "7*7}}": 5373,
      "%253c%2521doctype%2520root": 5374,
      "greeting\": \"template=": 5375,
      "&#120;&#109;&#108;\\&#110;": 5376,
      "(rand": 5377,
      "&#106;&#97;&#118": 5378,
      "\\u0064\\u0061\\u0074\\u0061": 5379,
      "'\\\",": 5380,
      "697": 5381,
      "b3": 5382,
      "yd": 5383,
      "sec": 5384,
      ", but ": 5385,
      "ip=host=": 5386,
      "template\": \"template=": 5387,
      "%252529": 5388,
      "24-07-01": 5389,
      "3cscript": 5390,
      " http/1.1 [crlf] host: api.example.io [crlf] user-agent: mozilla/5.0 (x11; linux x86_64) applewebkit/537.36 (khtml, like gecko) chrome/1": 5391,
      ";&#101;&#115;&#111;&#117;&#114;&#99;&#101;": 5392,
      " http/1.1 [crlf] host: example.com [crlf] user-agent: mozilla/5.0 (x11; linux aarch64) applewebkit/537.36 (khtml, like gecko) chrome/1": 5393,
      "flag": 5394,
      "'\\\",\"}\n": 5395,
      "<&#114;&#111;&#111;&#116;": 5396,
      "]>": 5397,
      "c4": 5398,
      "ct ": 5399,
      "sa": 5400,
      " safari/537.36 [crlf] content-type: application/json": 5401,
      "%3&#69;": 5402,
      "that ": 5403,
      "\", \"query\": \"host=": 5404,
      "\", \"from\": \"20": 5405,
      "%255cu0046": 5406,
      "ja-jp [crlf] connection: keep-alive [crlf] content-type: application/json [crlf]  [crlf] {\"": 5407,
      "0x540x54": 5408,
      "%5&#67": 5409,
      "php%253a%252f%252f": 5410,
      "get/**/": 5411,
      ") applewebkit/537.36 (khtml, like gecko) chrome/122.0.6261.128 safari/537.36 [crlf] accept: application/json [crlf] accept-language: ": 5412,
      "124.0) gecko/20100101 firefox/124.0 [crlf] accept: application/json [crlf] accept-language: ": 5413,
      " [crlf] content-disposition: form-data; name=\"file\"; filename=\"path=..": 5414,
      "pt-br [crlf] connection: close [crlf] content-type: application/json [crlf]  [crlf] {\"": 5415,
      ".example.com [crlf] user-agent: mozilla/5.0 (linux; android 13; sm-g991b) applewebkit/537.36 (khtml, like gecko) chrome/122.0.6261.128 mobile": 5416,
      "_ga=ga1.1.": 5417,
      " [crlf] connection: close [crlf] content-type: application/xml [crlf]  [crlf] \"```xml\\n<!doctype": 5418,
      "get /api/v1/users/1": 5419,
      "(chr(113": 5420,
      "failed": 5421,
      "@demo.net": 5422,
      "0x730x680x610x640x6f0x77": 5423,
      "&#102;&#105;&#108;&#116;&#101;&#114;/": 5424,
      "\"&#102;&#105;&#108;&#101;:///": 5425,
      "(sleep(5": 5426,
      "770": 5427,
      "9 http/1.1 [crlf] host: localhost [crlf] accept: */* [crlf] \n": 5428,
      "==": 5429,
      "iframe": 5430,
      "] http/1.1 [crlf] host: ": 5431,
      "\\u0061/": 5432,
      "ip\": \"host=": 5433,
      " [crlf] content-type: text/plain": 5434,
      "0x6f0x73": 5435,
      ";&#109;&#101;&#110": 5436,
      ") applewebkit/537.36 (khtml, like gecko) chrome/114.0.5735.199 safari/537.36 [crlf] accept: application/json, text/javascript, */*; q=0.01 [crlf] accept-language: ": 5437,
      "poli": 5438,
      "&#109;&#101;&#116;&#97;&#100;&#97;&#116;&#97": 5439,
      "0x730x680x650x6c0x6c": 5440,
      "&#105;&#110;&#116;&#101;&#114": 5441,
      "\\u0055\\u0054": 5442,
      "&#101;&#120;&#97;&#109;&#112;&#108;&#101;": 5443,
      "&#69;&#78;&#84;&#73;&#84;&#89; % ": 5444,
      "table_name": 5445,
      "get /healthz?": 5446,
      "* from (select": 5447,
      "\\u0069\\u006f\\u006e ": 5448,
      "&#117;&#110;&#105;&#111;&#110; ": 5449,
      "0x6a0x610x760x61": 5450,
      ".google.": 5451,
      "(sleep(5)))": 5452,
      "* from (select(sleep(5)))": 5453,
      "&content=": 5454,
      "6 http/1.1 [crlf] host: localhost [crlf] accept: */* [crlf] \n": 5455,
      "654": 5456,
      ";0": 5457,
      "b4": 5458,
      "250": 5459,
      "allow": 5460,
      "://&#102;&#105;&#108;&#116;&#101;&#114;/": 5461,
      "%255cu0068": 5462,
      "\\u0061\\u006e": 5463,
      "0x720x74": 5464,
      "%255c%252f": 5465,
      " http/1.1 [crlf] host: www.example.com [crlf] user-agent: mozilla/5.0 (windows nt 6.1; win64; x64) applewebkit/537.36 (khtml, like gecko) chrome/1": 5466,
      " http/1.1 [crlf] host: backend.example.com [crlf] user-agent: mozilla/5.0 (windows nt 10.0; win64; x64) applewebkit/537.36 (khtml, like gecko) chrome/1": 5467,
      " http/1.1 [crlf] host: app.example.com [crlf] user-agent: mozilla/5.0 (windows nt 10.0; win64; x64) applewebkit/537.36 (khtml, like gecko) chrome/1": 5468,
      "en-gb [crlf] connection: close [crlf] content-type: application/json [crlf]  [crlf] {\"": 5469,
      " /admin/": 5470,
      ") applewebkit/605.1.15 (khtml, like gecko) version/16.6 safari/605.1.15 [crlf] accept: text/html,application/xhtml+xml,application/xml;q=0.9,image/avif,image/webp,*/*;q=0.8 [crlf] accept-language: ": 5471,
      "patch /admin/": 5472,
      "text%252f": 5473,
      "post /admin/users/1": 5474,
      "concat(0x": 5475,
      "get /api/v1/statu": 5476,
      " e": 5477,
      "%u00": 5478,
      "&redirect=redirect=": 5479,
      ".\", \"name\": \"": 5480,
      "2%25": 5481,
      "4 http/1.1 [crlf] host: localhost [crlf] accept: */* [crlf] \n": 5482,
      "und": 5483,
      "{ ": 5484,
      "%2570": 5485,
      "series": 5486,
      ";q=0.8 [crlf] connection: keep-alive [crlf] content-type: application/xml [crlf]  [crlf] ": 5487,
      "any": 5488,
      "%2522%2560%2560%2560xml": 5489,
      ";q=0.7 [crlf] connection: close [crlf] content-type: application/xml [crlf]  [crlf] ": 5490,
      "%5cu0066": 5491,
      "\\\\u00750064": 5492,
      " http/1.1 [crlf] host: api.example.io [crlf] user-agent: mozilla/5.0 (linux; android 13; pixel 7": 5493,
      "etc\\": 5494,
      "etc%25252f": 5495,
      ") applewebkit/537.36 (khtml, like gecko) chrome/114.0.5735.199 safari/537.36 [crlf] accept: application/json, text/plain, */* [crlf] accept-language: ": 5496,
      ") applewebkit/537.36 (khtml, like gecko) chrome/110.0.5481.177 safari/537.36 [crlf] accept: application/json;charset=utf-8 [crlf] accept-language: ": 5497,
      ") applewebkit/537.36 (khtml, like gecko) chrome/124.0.6367.82 safari/537.36 [crlf] accept: application/json, text/plain, */* [crlf] accept-language: ": 5498,
      ") applewebkit/537.36 (khtml, like gecko) chrome/124.0.6367.82 safari/537.36 [crlf] accept: application/json, text/javascript, */*; q=0.01 [crlf] accept-language: ": 5499,
      ") applewebkit/605.1.15 (khtml, like gecko) version/17.2 safari/605.1.15 [crlf] accept: text/html,application/xhtml+xml,application/xml;q=0.9,image/avif,image/webp,*/*;q=0.8 [crlf] accept-language: ": 5500,
      ";&#118;&#101;&#114;&#116;": 5501,
      "115.0) gecko/20100101 firefox/115.0 [crlf] accept: application/json, text/javascript, */*; q=0.01 [crlf] accept-language: ": 5502,
      "ive ": 5503,
      ".example.com [crlf] user-agent: mozilla/5.0 (linux; android 14; pixel 8) applewebkit/537.36 (khtml, like gecko) chrome/114.0.5735.199 mobile": 5504,
      "&type=pdf": 5505,
      "&role=moderator": 5506,
      "\\&#117;006&#99;": 5507,
      "))) or ": 5508,
      "0x680x6f0x730x74": 5509,
      "%257c%2520": 5510,
      "get /api/v1/addresses?": 5511,
      "%2&#101;%2": 5512,
      "autofocus": 5513,
      "1 http/1.1 [crlf] host: localhost [crlf] accept: */* [crlf] \n": 5514,
      "840": 5515,
      "a, ": 5516,
      "lon": 5517,
      "oauth": 5518,
      "\\u0056": 5519,
      "can": 5520,
      "; &#111;&#110": 5521,
      "lock": 5522,
      "%30x45": 5523,
      ";q=0.7 [crlf] connection: keep-alive [crlf] content-type: multipart/form-data; boundary=----webkitformboundary": 5524,
      "%22%60%60%60xml": 5525,
      "0x640x690x6e0x67": 5526,
      "\\0x750045": 5527,
      "\\u0064\\u0069\\u006e\\u0067": 5528,
      "en-us [crlf] connection: keep-alive [crlf] content-type: application/json [crlf]  [crlf] {\"": 5529,
      "it-it [crlf] connection: close [crlf] content-type: application/json [crlf]  [crlf] {\"": 5530,
      "))+": 5531,
      "msg=%2522%2527": 5532,
      "%0d%0": 5533,
      ") applewebkit/537.36 (khtml, like gecko) chrome/118.0.5993.88 safari/537.36 [crlf] accept: application/json, text/javascript, */*; q=0.01 [crlf] accept-language: ": 5534,
      "109.0) gecko/20100101 firefox/109.0 [crlf] accept: application/json;charset=utf-8 [crlf] accept-language: ": 5535,
      "select+": 5536,
      "ware": 5537,
      "ive_": 5538,
      ".example.com [crlf] user-agent: mozilla/5.0 (linux; android 14; pixel 8) applewebkit/537.36 (khtml, like gecko) chrome/120.0.6099.130 mobile": 5539,
      "offi": 5540,
      "api.example.io [crlf] user-agent: mozilla/5.0 (macintosh; intel mac os x ": 5541,
      "_sleep(5": 5542,
      "122)+char(": 5543,
      "%2520%2525%257d": 5544,
      "get /api/v1/roles?page=": 5545,
      "pg_sleep(5": 5546,
      "write": 5547,
      "patch /admin/setting": 5548,
      "get /api/v1/status?": 5549,
      "_series": 5550,
      "d4": 5551,
      "fb": 5552,
      "gf": 5553,
      "v http/1.1 [crlf] host: localhost [crlf] accept: */* [crlf] \n": 5554,
      ";q=0.8 [crlf] connection: keep-alive [crlf] content-type: multipart/form-data; boundary=----webkitformboundary": 5555,
      "\\\\0x78": 5556,
      "://<": 5557,
      ";&#114;&#111": 5558,
      " http/1.1 [crlf] host: www.example.com [crlf] user-agent: mozilla/5.0 (x11; linux aarch64) applewebkit/537.36 (khtml, like gecko) chrome/1": 5559,
      "\\&#117;0064": 5560,
      "\\x2e": 5561,
      ") applewebkit/537.36 (khtml, like gecko) chrome/125.0.6422.60 safari/537.36 [crlf] accept: application/json [crlf] accept-language: ": 5562,
      "\\\\u006f\\\\u0072": 5563,
      "%253b%2526%2523110": 5564,
      ";&#102;": 5565,
      ".example.com [crlf] user-agent: mozilla/5.0 (linux; android 12; sm-a525f) applewebkit/537.36 (khtml, like gecko) chrome/122.0.6261.128 mobile": 5566,
      "http%3a%2f%2fevil.com%2f": 5567,
      "target=url=": 5568,
      "\\u0065\\u006e\\u0063\\u006f\\u0064\\u0069\\u006e\\u0067": 5569,
      "free": 5570,
      "generate_series": 5571,
      "\\x69\\x": 5572,
      "0x540x540x50": 5573,
      "\\u0055\\u0054\\u0046": 5574,
      ")>": 5575,
      "760": 5576,
      "9a": 5577,
      "ij": 5578,
      "ob": 5579,
      "%2509": 5580,
      "mach": 5581,
      "%255c%2527": 5582,
      "\\u006c\\u006c": 5583,
      " http/1.1 [crlf] host: backend.example.com [crlf] user-agent: mozilla/5.0 (x11; linux aarch64) applewebkit/537.36 (khtml, like gecko) chrome/1": 5584,
      " http/1.1 [crlf] host: example.com [crlf] user-agent: mozilla/5.0 (windows nt 6.1; win64; x64) applewebkit/537.36 (khtml, like gecko) chrome/1": 5585,
      "\\\\u0065\\\\u0063": 5586,
      "phones": 5587,
      "y to ": 5588,
      "......": 5589,
      "%2528%2522": 5590,
      ") applewebkit/605.1.15 (khtml, like gecko) version/17.2 safari/605.1.15 [crlf] accept: text/html, application/xhtml+xml, application/xml;q=0.9, */*;q=0.8 [crlf] accept-language: ": 5591,
      ") applewebkit/537.36 (khtml, like gecko) chrome/125.0.6422.60 safari/537.36 [crlf] accept: application/json, text/javascript, */*; q=0.01 [crlf] accept-language: ": 5592,
      ") applewebkit/605.1.15 (khtml, like gecko) version/17.4 safari/605.1.15 [crlf] accept: text/html,application/xhtml+xml,application/xml;q=0.9,*/*;q=0.8 [crlf] accept-language: ": 5593,
      "webhook=url=": 5594,
      ".example.com [crlf] user-agent: mozilla/5.0 (linux; android 13; pixel 7) applewebkit/537.36 (khtml, like gecko) chrome/110.0.5481.177 mobile": 5595,
      ".example.com [crlf] user-agent: mozilla/5.0 (linux; android 12; sm-a525f) applewebkit/537.36 (khtml, like gecko) chrome/120.0.6099.130 mobile": 5596,
      ";&#84;&#70;": 5597,
      "instance/": 5598,
      "headphones": 5599,
      " data": 5600,
      " de ": 5601,
      "%78": 5602,
      ".get": 5603,
      "7 http/1.1 [crlf] host: localhost [crlf] accept: */* [crlf] \n": 5604,
      "i http/1.1 [crlf] host: localhost [crlf] accept: */* [crlf] \n": 5605,
      "open": 5606,
      "http%2f1.1": 5607,
      "%2520http%253a%252f%252f": 5608,
      " http/1.1 [crlf] host: api.example.com [crlf] user-agent: mozilla/5.0 (x11; linux x86_64) applewebkit/537.36 (khtml, like gecko) chrome/1": 5609,
      "533": 5610,
      "0x730x6f0x75": 5611,
      "\\0x782": 5612,
      " http/1.1 [crlf] host: dev.example.com [crlf] user-agent: mozilla/5.0 (x11; linux aarch64) applewebkit/537.36 (khtml, like gecko) chrome/1": 5613,
      "fr-fr [crlf] connection: keep-alive [crlf] content-type: application/json [crlf]  [crlf] {\"": 5614,
      " http/1.1 [crlf] host: example.com [crlf] user-agent: mozilla/5.0 (windows nt 10.0; win64; x64) applewebkit/537.36 (khtml, like gecko) chrome/1": 5615,
      " http/1.1 [crlf] host: example.com [crlf] user-agent: mozilla/5.0 (windows nt 10.0; wow64) applewebkit/537.36 (khtml, like gecko) chrome/1": 5616,
      "')/**/": 5617,
      "32,": 5618,
      ") applewebkit/537.36 (khtml, like gecko) chrome/124.0.6367.82 safari/537.36 [crlf] accept: application/json;charset=utf-8 [crlf] accept-language: ": 5619,
      "location%253a%2520": 5620,
      ") applewebkit/605.1.15 (khtml, like gecko) version/17.2 safari/605.1.15 [crlf] accept: text/html,application/xhtml+xml,application/xml;q=0.9,*/*;q=0.8 [crlf] accept-language: ": 5621,
      ") applewebkit/537.36 (khtml, like gecko) chrome/125.0.6422.60 safari/537.36 [crlf] accept: application/json;charset=utf-8 [crlf] accept-language: ": 5622,
      ") applewebkit/605.1.15 (khtml, like gecko) version/16.6 safari/605.1.15 [crlf] accept: text/html, application/xhtml+xml, application/xml;q=0.9, */*;q=0.8 [crlf] accept-language: ": 5623,
      "109.0) gecko/20100101 firefox/109.0 [crlf] accept: application/json, text/plain, */* [crlf] accept-language: ": 5624,
      "get /api/v1/files": 5625,
      "ko-kr [crlf] connection: keep-alive [crlf] content-type: application/json [crlf]  [crlf] {\"": 5626,
      "25-03-31": 5627,
      "\\\\u0069\\\\u006c": 5628,
      "', http/1.1 [crlf] host: ": 5629,
      "encoding%253d%2522": 5630,
      "\\u0069\\u006e\\u0064": 5631,
      "colum": 5632,
      "get /api/v1/profile?": 5633,
      "%20system%20%27": 5634,
      "s?to=2024-0": 5635,
      "msg=\"<": 5636,
      "about": 5637,
      "%2\\u0065%2\\u0065": 5638,
      "get /api/v2/config?": 5639,
      "/**/1": 5640,
      ";&#84;&#84;&#80;/1.1": 5641,
      "paused": 5642,
      "<!0x440x4f0x430x540x590x500x45 0x720x6f0x6f0x74": 5643,
      "0x730x6f0x750x720x630x65": 5644,
      "8 http/1.1 [crlf] host: localhost [crlf] accept: */* [crlf] \n": 5645,
      "<\\u0072\\u006f\\u006f\\u0074": 5646,
      "eb": 5647,
      "hav": 5648,
      "l http/1.1 [crlf] host: localhost [crlf] accept: */* [crlf] \n": 5649,
      "m ": 5650,
      "; '": 5651,
      ";q=0.9 [crlf] connection: close [crlf] content-type: application/xml [crlf]  [crlf] ": 5652,
      "%252568": 5653,
      "get /search?q=f": 5654,
      "lers": 5655,
      "utf-8%2522": 5656,
      ";q=0.7 [crlf] connection: keep-alive [crlf] content-type: application/xml [crlf]  [crlf] ": 5657,
      " http/1.1 [crlf] host: api.example.io [crlf] user-agent: mozilla/5.0 (x11; ubuntu; linux x86_64) applewebkit/537.36 (khtml, like gecko) chrome/1": 5658,
      "0x660x66": 5659,
      " http/1.1 [crlf] host: example.com [crlf] user-agent: mozilla/5.0 (x11; ubuntu; linux x86_64) applewebkit/537.36 (khtml, like gecko) chrome/1": 5660,
      "&#99;&#108": 5661,
      "%29%29": 5662,
      "%3d1": 5663,
      ") applewebkit/537.36 (khtml, like gecko) chrome/110.0.5481.177 safari/537.36 [crlf] accept: application/json, text/javascript, */*; q=0.01 [crlf] accept-language: ": 5664,
      " that ": 5665,
      ") applewebkit/537.36 (khtml, like gecko) chrome/122.0.6261.128 safari/537.36 [crlf] accept: application/json, text/javascript, */*; q=0.01 [crlf] accept-language: ": 5666,
      ") applewebkit/605.1.15 (khtml, like gecko) version/17.0 safari/605.1.15 [crlf] accept: text/html,application/xhtml+xml,application/xml;q=0.9,image/avif,image/webp,*/*;q=0.8 [crlf] accept-language: ": 5667,
      "&#112;&#97;&#121": 5668,
      ") applewebkit/605.1.15 (khtml, like gecko) version/17.4 safari/605.1.15 [crlf] accept: text/html,application/xhtml+xml,application/xml;q=0.9,image/webp,*/*;q=0.8 [crlf] accept-language: ": 5669,
      "115.0) gecko/20100101 firefox/115.0 [crlf] accept: application/json, text/plain, */* [crlf] accept-language: ": 5670,
      "igin": 5671,
      "perform": 5672,
      "https%253a%252f%252f": 5673,
      "\\0x750060x64": 5674,
      "&role=admin": 5675,
      " blog": 5676,
      "0x660x6f0x6f>\n": 5677,
      "0x660x6f0x6f>&0x780x780x65;</": 5678,
      "&#115;&#104;&#101;&#108": 5679,
      "service ": 5680,
      "0x550x54": 5681,
      "get /api/v1/config?": 5682,
      "&#85;&#84;&#70;": 5683,
      ";&#111;&#99;&#97;&#116;&#105;&#111;&#110;: ": 5684,
      "monthly": 5685,
      "%c0%ae%c0%": 5686,
      "ntc=": 5687,
      "customer ": 5688,
      "%68%74%74": 5689,
      "&#68;&#79;&#67;&#84;&#89;&#80;&#69; &#102;&#111;&#111; [<!&#69;&#78;&#84;&#73;&#84;&#89; &#120;&#120;&#101; &#83;&#89;&#83;&#84;&#69;&#77; ": 5690,
      "0x6c0x6f0x630x610x6c": 5691,
      "0x440x4f0x430x540x590x500x45 0x660x6f0x6f [<!0x450x4e0x540x490x540x59": 5692,
      "<!\\u0044\\u004f\\u0043\\u0054\\u0059\\u0050\\u0045 \\u0072\\u006f\\u006f\\u0074": 5693,
      "&#108;&#111;&#99;&#97;&#108": 5694,
      "encoding%253d%2522utf-8%2522": 5695,
      "\"payload": 5696,
      "@n": 5697,
      "cu": 5698,
      "pb": 5699,
      " [crlf] [": 5700,
      " [crlf]  [crlf] [": 5701,
      "origin": 5702,
      "data/": 5703,
      "sellers": 5704,
      "28520": 5705,
      " http/1.1 [crlf] host: backend.example.com [crlf] user-agent: mozilla/5.0 (windows nt 6.1; win64; x64) applewebkit/537.36 (khtml, like gecko) chrome/1": 5706,
      "es-es [crlf] connection: keep-alive [crlf] content-type: application/json [crlf]  [crlf] {\"": 5707,
      " http/1.1 [crlf] host: example.com [crlf] user-agent: mozilla/5.0 (linux; android 13; pixel 7": 5708,
      "get /search?q=1%": 5709,
      "msg=%2522": 5710,
      "('/": 5711,
      ";&#120;&#116;": 5712,
      "%7b%25": 5713,
      ";&#118;": 5714,
      "125.0) gecko/20100101 firefox/125.0 [crlf] accept: application/json, text/plain, */* [crlf] accept-language: ": 5715,
      "pt-br [crlf] connection: keep-alive [crlf] content-type: application/json [crlf]  [crlf] {\"": 5716,
      "\">]><0x660x6f0x6f>&0x780x780x65;</": 5717,
      "(1)>/>": 5718,
      ">&xxe;</root": 5719,
      "%253b%2526%2523116%253b": 5720,
      "\\u0075\\u006e\\u0069\\u006f\\u006e ": 5721,
      "\\u0066\\u0069\\u006c\\u0065:///\\u0065\\u0074\\u0063/\\u0070\\u0061\\u0073\\u0073\\u0077\\u0064": 5722,
      "&dni=": 5723,
      "\\u0053\\u0065\\u0074-\\u0043\\u006f\\u006f\\u006b\\u0069\\u0065: ": 5724,
      "91.0.4472.1": 5725,
      "%257b%2525%2520": 5726,
      "cancelled": 5727,
      "gaming": 5728,
      ";&#118;&#101;&#114;&#116;.": 5729,
      "2852039": 5730,
      "\">]><0x660x6f0x6f>&0x780x780x65;</0x660x6f0x6f>\n": 5731,
      "& [crlf] \n": 5732,
      "&message=": 5733,
      "&timezone=": 5734,
      "?category=": 5735,
      "ae/": 5736,
      "tk": 5737,
      "input=host=": 5738,
      "username=": 5739,
      "comp": 5740,
      "64_": 5741,
      " [crlf] content-type: mozilla/5.0 (": 5742,
      "%252524": 5743,
      ";&#116;&#105": 5744,
      " http/1.1 [crlf] host: api.example.com [crlf] user-agent: mozilla/5.0 (x11; linux aarch64) applewebkit/537.36 (khtml, like gecko) chrome/1": 5745,
      "product ": 5746,
      "\\0x750054": 5747,
      "\\\\u00750070": 5748,
      " http/1.1 [crlf] host: staging.example.com [crlf] user-agent: mozilla/5.0 (windows nt 6.3; win64; x64) applewebkit/537.36 (khtml, like gecko) chrome/1": 5749,
      "0x6d0x610x6c": 5750,
      " http/1.1 [crlf] host: app.example.com [crlf] user-agent: mozilla/5.0 (x11; linux x86_64) applewebkit/537.36 (khtml, like gecko) chrome/1": 5751,
      " [crlf] content-type: application/xml [crlf]  [crlf] [": 5752,
      "get /search?q=1%\"": 5753,
      "20.0.6099.130 safari/537.36 [crlf] accept: text/html,application/xhtml+xml,application/xml;q=0.9,*/*;q=0.8 [crlf] accept-language: ": 5754,
      "fr-fr,fr;q=0.5": 5755,
      "de-de,de;q=0.5": 5756,
      ") applewebkit/537.36 (khtml, like gecko) chrome/110.0.5481.177 safari/537.36 [crlf] accept: application/json [crlf] accept-language: ": 5757,
      ") applewebkit/537.36 (khtml, like gecko) chrome/110.0.5481.177 safari/537.36 [crlf] accept: application/json, text/plain, */* [crlf] accept-language: ": 5758,
      "get%20": 5759,
      ") applewebkit/537.36 (khtml, like gecko) chrome/120.0.6099.130 safari/537.36 [crlf] accept: application/json;charset=utf-8 [crlf] accept-language: ": 5760,
      "118.0) gecko/20100101 firefox/118.0 [crlf] accept: application/json [crlf] accept-language: ": 5761,
      "cmd=host=": 5762,
      ".example.com [crlf] user-agent: mozilla/5.0 (linux; android 12; sm-a525f) applewebkit/537.36 (khtml, like gecko) chrome/124.0.6367.82 mobile": 5763,
      "&role=editor": 5764,
      "&role=viewer": 5765,
      "0x610x6d0x700x6c": 5766,
      "%3b%26%23105": 5767,
      "msg=\"><": 5768,
      "\\u00786\\u00660\\u00786": 5769,
      "file%253a%252f%252f%252fetc%252fpasswd": 5770,
      "&#101;&#110;&#99;&#111;&#100;&#105;&#110;&#103;": 5771,
      "get /readyz?": 5772,
      "0x530x650x74-0x430x6f0x6f0x6b0x690x65: ": 5773,
      "site.com": 5774,
      "quarterly": 5775,
      "%0d%0acontent-": 5776,
      "0x550x540x46": 5777,
      "%c0%ae%c0%ae/": 5778,
      "&next=redirect=": 5779,
      "&theme=": 5780,
      ",10": 5781,
      "05": 5782,
      "7%2a": 5783,
      "\\.": 5784,
      "fc": 5785,
      "\\\\u006b": 5786,
      "690&#120;6": 5787,
      "&page=18": 5788,
      " http/1.1 [crlf] host: api.example.io [crlf] user-agent: mozilla/5.0 (windows nt 10.0; wow64) applewebkit/537.36 (khtml, like gecko) chrome/1": 5789,
      " http/1.1 [crlf] host: www.example.com [crlf] user-agent: mozilla/5.0 (windows nt 10.0; wow64) applewebkit/537.36 (khtml, like gecko) chrome/1": 5790,
      " http/1.1 [crlf] host: www.example.com [crlf] user-agent: mozilla/5.0 (x11; linux x86_64) applewebkit/537.36 (khtml, like gecko) chrome/1": 5791,
      " http/1.1 [crlf] host: backend.example.com [crlf] user-agent: mozilla/5.0 (windows nt 10.0; wow64) applewebkit/537.36 (khtml, like gecko) chrome/1": 5792,
      "log/": 5793,
      "00x7863": 5794,
      ") applewebkit/537.36 (khtml, like gecko) chrome/118.0.5993.88 safari/537.36 [crlf] accept: application/json, text/plain, */* [crlf] accept-language: ": 5795,
      "%255cx65": 5796,
      ") applewebkit/605.1.15 (khtml, like gecko) version/17.0 safari/605.1.15 [crlf] accept: text/html,application/xhtml+xml,application/xml;q=0.9,image/webp,*/*;q=0.8 [crlf] accept-language: ": 5797,
      "118.0) gecko/20100101 firefox/118.0 [crlf] accept: application/json, text/javascript, */*; q=0.01 [crlf] accept-language: ": 5798,
      "115.0) gecko/20100101 firefox/115.0 [crlf] accept: application/json [crlf] accept-language: ": 5799,
      "xss%252a%252f": 5800,
      "em></p>": 5801,
      "\\&#117;006&#101;": 5802,
      "%252f%252axss%252a%252f": 5803,
      "get /api/v2/catalog/items?": 5804,
      ";&#97;&#100;&#111;&#119": 5805,
      "ping\": \"host=": 5806,
      "\\u0078\\u006d\\u006c\\\\u006e": 5807,
      "size ": 5808,
      "starred": 5809,
      "get /api/v1/analytics/summary?from=20": 5810,
      "\\u0068\\u0074\\u0074\\u0070://\\u0065\\u0076\\u0069\\u006c": 5811,
      "get /metrics?": 5812,
      "get /actuator/metrics?": 5813,
      "data:text/html": 5814,
      "tribu": 5815,
      "0x610x6d0x700x6c0x65": 5816,
      "/{": 5817,
      ";9": 5818,
      "{%/**/": 5819,
      "cre": 5820,
      "kitch": 5821,
      " [crlf] content-length: ": 5822,
      "get /search?q=h": 5823,
      "%2520encoding%253d%2522utf-8%2522": 5824,
      "=\"\\u0055\\u0054\\u0046": 5825,
      "&page=38": 5826,
      "redirect=url=": 5827,
      "%50x43": 5828,
      "%252c%257d": 5829,
      "zh-cn,zh;q=0.5": 5830,
      "location:/**/": 5831,
      ") applewebkit/537.36 (khtml, like gecko) chrome/125.0.6422.60 safari/537.36 [crlf] accept: application/json, text/plain, */* [crlf] accept-language: ": 5832,
      "beg": 5833,
      ")||chr(118": 5834,
      ".example.com [crlf] user-agent: mozilla/5.0 (linux; android 13; pixel 7) applewebkit/537.36 (khtml, like gecko) chrome/120.0.6099.130 mobile": 5835,
      ")) and ": 5836,
      "get /api/v1/categories?": 5837,
      "%253c%252fscript%253e": 5838,
      "'> ": 5839,
      ");select ": 5840,
      "') }}": 5841,
      " http/1.1 [crlf] host: example.com [crlf] user-agent: mozilla/5.0 (x11; linux x86_64) applewebkit/537.36 (khtml, like gecko) chrome/1": 5842,
      "..\\..\\..\\": 5843,
      "div>": 5844,
      "&#71;&#69;&#84; ": 5845,
      "&#112;&#104;&#112;://&#102;&#105;&#108;&#116;&#101;&#114;/": 5846,
      " [crlf] user-agent: mozilla/5.0 (windows nt 10.0; win64; x64) applewebkit/537.36 (khtml, like gecko) chrome/92.0.4515.131": 5847,
      "get /api/v1/tags?": 5848,
      "<!entity/**/xxe/**/system/**/\"": 5849,
      ".255.255": 5850,
      "/**/foo/**/[<!entity/**/xxe/**/system/**/\"": 5851,
      "docs/readme.md http/1.1": 5852,
      "&#120;&#109;&#108;\\&#110;<!&#68;&#79;&#67;&#84;&#89;&#80;&#69; ": 5853,
      "\\u0065\\u006e\\u0063\\u006f\\u0064\\u0069\\u006e\\u0067=\"\\u0055\\u0054\\u0046": 5854,
      "customer service ": 5855,
      "\\u0065\\u006e\\u0063\\u006f\\u0064\\u0069\\u006e\\u0067=\"\\u0055\\u0054\\u0046-8\"?><!": 5856,
      "\":": 5857,
      "%0x4": 5858,
      ",14": 5859,
      ".updated": 5860,
      "08": 5861,
      "iss": 5862,
      "ther": 5863,
      "get /search?q=3": 5864,
      "get /search?q=8": 5865,
      "%2522%2529": 5866,
      " http/1.1 [crlf] host: api.example.io [crlf] user-agent: mozilla/5.0 (windows nt 6.3; win64; x64) applewebkit/537.36 (khtml, like gecko) chrome/1": 5867,
      " http/1.1 [crlf] host: api.example.io [crlf] user-agent: mozilla/5.0 (windows nt 10.0; win64; x64) applewebkit/537.36 (khtml, like gecko) chrome/1": 5868,
      "%5c%2f": 5869,
      " http/1.1 [crlf] host: dev.example.com [crlf] user-agent: mozilla/5.0 (windows nt 10.0; wow64) applewebkit/537.36 (khtml, like gecko) chrome/1": 5870,
      " http/1.1 [crlf] host: dev.example.com [crlf] user-agent: mozilla/5.0 (x11; ubuntu; linux x86_64) applewebkit/537.36 (khtml, like gecko) chrome/1": 5871,
[...]
